{
  "version": "1.0",
  "truncation": null,
  "padding": null,
  "added_tokens": [
    {
      "id": 0,
      "content": "<pad>",
      "single_word": false,
      "lstrip": false,
      "rstrip": false,
      "normalized": false,
      "special": true
    },
    {
      "id": 1,
      "content": "<unk>",
      "single_word": false,
      "lstrip": false,
      "rstrip": false,
      "normalized": false,
      "special": true
    },
    {
      "id": 2,
      "content": "<bos>",
      "single_word": false,
      "lstrip": false,
      "rstrip": false,
      "normalized": false,
      "special": true
    },
    {
      "id": 3,
      "content": "<eos>",
      "single_word": false,
      "lstrip": false,
      "rstrip": false,
      "normalized": false,
      "special": true
    },
    {
      "id": 4,
      "content": "<|system|>",
      "single_word": false,
      "lstrip": false,
      "rstrip": false,
      "normalized": false,
      "special": true
    },
    {
      "id": 5,
      "content": "<|user|>",
      "single_word": false,
      "lstrip": false,
      "rstrip": false,
      "normalized": false,
      "special": true
    },
    {
      "id": 6,
      "content": "<|assistant|>",
      "single_word": false,
      "lstrip": false,
      "rstrip": false,
      "normalized": false,
      "special": true
    }
  ],
  "normalizer": null,
  "pre_tokenizer": {
    "type": "ByteLevel",
    "add_prefix_space": false,
    "trim_offsets": true,
    "use_regex": true
  },
  "post_processor": null,
  "decoder": {
    "type": "ByteLevel",
    "add_prefix_space": true,
    "trim_offsets": true,
    "use_regex": true
  },
  "model": {
    "type": "BPE",
    "dropout": null,
    "unk_token": "<unk>",
    "continuing_subword_prefix": null,
    "end_of_word_suffix": null,
    "fuse_unk": false,
    "byte_fallback": false,
    "ignore_merges": false,
    "vocab": {
      "<pad>": 0,
      "<unk>": 1,
      "<bos>": 2,
      "<eos>": 3,
      "<|system|>": 4,
      "<|user|>": 5,
      "<|assistant|>": 6,
      "!": 7,
      "\"": 8,
      "#": 9,
      "$": 10,
      "%": 11,
      "&": 12,
      "'": 13,
      "(": 14,
      ")": 15,
      "*": 16,
      "+": 17,
      ",": 18,
      "-": 19,
      ".": 20,
      "/": 21,
      "0": 22,
      "1": 23,
      "2": 24,
      "3": 25,
      "4": 26,
      "5": 27,
      "6": 28,
      "7": 29,
      "8": 30,
      "9": 31,
      ":": 32,
      ";": 33,
      "<": 34,
      "=": 35,
      ">": 36,
      "?": 37,
      "@": 38,
      "A": 39,
      "B": 40,
      "C": 41,
      "D": 42,
      "E": 43,
      "F": 44,
      "G": 45,
      "H": 46,
      "I": 47,
      "J": 48,
      "K": 49,
      "L": 50,
      "M": 51,
      "N": 52,
      "O": 53,
      "P": 54,
      "Q": 55,
      "R": 56,
      "S": 57,
      "T": 58,
      "U": 59,
      "V": 60,
      "W": 61,
      "X": 62,
      "Y": 63,
      "Z": 64,
      "[": 65,
      "\\": 66,
      "]": 67,
      "^": 68,
      "_": 69,
      "`": 70,
      "a": 71,
      "b": 72,
      "c": 73,
      "d": 74,
      "e": 75,
      "f": 76,
      "g": 77,
      "h": 78,
      "i": 79,
      "j": 80,
      "k": 81,
      "l": 82,
      "m": 83,
      "n": 84,
      "o": 85,
      "p": 86,
      "q": 87,
      "r": 88,
      "s": 89,
      "t": 90,
      "u": 91,
      "v": 92,
      "w": 93,
      "x": 94,
      "y": 95,
      "z": 96,
      "{": 97,
      "|": 98,
      "}": 99,
      "~": 100,
      "¡": 101,
      "¢": 102,
      "£": 103,
      "¤": 104,
      "¥": 105,
      "¦": 106,
      "§": 107,
      "¨": 108,
      "©": 109,
      "ª": 110,
      "«": 111,
      "¬": 112,
      "®": 113,
      "¯": 114,
      "°": 115,
      "±": 116,
      "²": 117,
      "³": 118,
      "´": 119,
      "µ": 120,
      "¶": 121,
      "·": 122,
      "¸": 123,
      "¹": 124,
      "º": 125,
      "»": 126,
      "¼": 127,
      "½": 128,
      "¾": 129,
      "¿": 130,
      "À": 131,
      "Á": 132,
      "Â": 133,
      "Ã": 134,
      "Ä": 135,
      "Å": 136,
      "Æ": 137,
      "Ç": 138,
      "È": 139,
      "É": 140,
      "Ê": 141,
      "Ë": 142,
      "Ì": 143,
      "Í": 144,
      "Î": 145,
      "Ï": 146,
      "Ð": 147,
      "Ñ": 148,
      "Ò": 149,
      "Ó": 150,
      "Ô": 151,
      "Õ": 152,
      "Ö": 153,
      "×": 154,
      "Ø": 155,
      "Ù": 156,
      "Ú": 157,
      "Û": 158,
      "Ü": 159,
      "Ý": 160,
      "Þ": 161,
      "ß": 162,
      "à": 163,
      "á": 164,
      "â": 165,
      "ã": 166,
      "ä": 167,
      "å": 168,
      "æ": 169,
      "ç": 170,
      "è": 171,
      "é": 172,
      "ê": 173,
      "ë": 174,
      "ì": 175,
      "í": 176,
      "î": 177,
      "ï": 178,
      "ð": 179,
      "ñ": 180,
      "ò": 181,
      "ó": 182,
      "ô": 183,
      "õ": 184,
      "ö": 185,
      "÷": 186,
      "ø": 187,
      "ù": 188,
      "ú": 189,
      "û": 190,
      "ü": 191,
      "ý": 192,
      "þ": 193,
      "ÿ": 194,
      "Ā": 195,
      "ā": 196,
      "Ă": 197,
      "ă": 198,
      "Ą": 199,
      "ą": 200,
      "Ć": 201,
      "ć": 202,
      "Ĉ": 203,
      "ĉ": 204,
      "Ċ": 205,
      "ċ": 206,
      "Č": 207,
      "č": 208,
      "Ď": 209,
      "ď": 210,
      "Đ": 211,
      "đ": 212,
      "Ē": 213,
      "ē": 214,
      "Ĕ": 215,
      "ĕ": 216,
      "Ė": 217,
      "ė": 218,
      "Ę": 219,
      "ę": 220,
      "Ě": 221,
      "ě": 222,
      "Ĝ": 223,
      "ĝ": 224,
      "Ğ": 225,
      "ğ": 226,
      "Ġ": 227,
      "ġ": 228,
      "Ģ": 229,
      "ģ": 230,
      "Ĥ": 231,
      "ĥ": 232,
      "Ħ": 233,
      "ħ": 234,
      "Ĩ": 235,
      "ĩ": 236,
      "Ī": 237,
      "ī": 238,
      "Ĭ": 239,
      "ĭ": 240,
      "Į": 241,
      "į": 242,
      "İ": 243,
      "ı": 244,
      "Ĳ": 245,
      "ĳ": 246,
      "Ĵ": 247,
      "ĵ": 248,
      "Ķ": 249,
      "ķ": 250,
      "ĸ": 251,
      "Ĺ": 252,
      "ĺ": 253,
      "Ļ": 254,
      "ļ": 255,
      "Ľ": 256,
      "ľ": 257,
      "Ŀ": 258,
      "ŀ": 259,
      "Ł": 260,
      "ł": 261,
      "Ń": 262,
      "ĠĠ": 263,
      "Ġt": 264,
      "Ġa": 265,
      "in": 266,
      "he": 267,
      "re": 268,
      "on": 269,
      "ĠĠĠĠ": 270,
      "Ġthe": 271,
      "er": 272,
      "at": 273,
      "Ġs": 274,
      "Ġo": 275,
      "en": 276,
      "Ġc": 277,
      "es": 278,
      "nd": 279,
      "Ġw": 280,
      "it": 281,
      "is": 282,
      "or": 283,
      "al": 284,
      "ing": 285,
      "Ġp": 286,
      "an": 287,
      "Ġf": 288,
      "ed": 289,
      "Ġb": 290,
      "ou": 291,
      "Ġof": 292,
      "ar": 293,
      "Ġin": 294,
      "Ġand": 295,
      "ic": 296,
      "Ġm": 297,
      "ion": 298,
      "Ġto": 299,
      "ĠĠĠĠĠĠĠĠ": 300,
      "Ġd": 301,
      "le": 302,
      "ro": 303,
      "as": 304,
      "ent": 305,
      "Ġh": 306,
      "ct": 307,
      "Ġe": 308,
      "Ġth": 309,
      "il": 310,
      "Ġre": 311,
      "om": 312,
      "st": 313,
      "ve": 314,
      "Ġl": 315,
      "--": 316,
      "Ġn": 317,
      "et": 318,
      "ly": 319,
      "ĠT": 320,
      "ol": 321,
      "ation": 322,
      "Ġ|": 323,
      "se": 324,
      "Ġg": 325,
      "im": 326,
      "Ġis": 327,
      "âĢ": 328,
      "id": 329,
      "ra": 330,
      "ce": 331,
      "ur": 332,
      "Ġbe": 333,
      "ch": 334,
      "ow": 335,
      "ĠA": 336,
      "ut": 337,
      "ĠĠĠĠĠĠĠĠĠĠĠĠĠĠĠĠ": 338,
      "ĠS": 339,
      "ig": 340,
      "ot": 341,
      "Ġu": 342,
      "Ġfor": 343,
      "ĠC": 344,
      "Ġy": 345,
      "Ġst": 346,
      "ver": 347,
      "ir": 348,
      "Ġon": 349,
      "ul": 350,
      "am": 351,
      "ĠI": 352,
      "el": 353,
      "Ġthat": 354,
      "ay": 355,
      "ith": 356,
      "Ġcon": 357,
      "Ġyou": 358,
      "Ġas": 359,
      "Ġpro": 360,
      "ad": 361,
      "Ġ1": 362,
      "her": 363,
      "if": 364,
      "Ġwith": 365,
      "ĠM": 366,
      "ter": 367,
      "Ġan": 368,
      "Ġor": 369,
      "Ġ(": 370,
      "----": 371,
      "ĠP": 372,
      "Ġare": 373,
      "od": 374,
      "Ġwh": 375,
      "Ġal": 376,
      "ment": 377,
      "Ġit": 378,
      "ess": 379,
      "ers": 380,
      "ge": 381,
      "ate": 382,
      "ies": 383,
      "th": 384,
      "ist": 385,
      "Ġex": 386,
      "ĠB": 387,
      "ĠThe": 388,
      "ab": 389,
      "Ġcom": 390,
      "op": 391,
      "ect": 392,
      "Ġde": 393,
      "us": 394,
      "res": 395,
      "ity": 396,
      "Ġhe": 397,
      "ill": 398,
      "ive": 399,
      "Ġv": 400,
      "Ġsu": 401,
      "ac": 402,
      "iv": 403,
      "ĠH": 404,
      "qu": 405,
      "em": 406,
      "ĠW": 407,
      "ore": 408,
      "and": 409,
      "ke": 410,
      "um": 411,
      "est": 412,
      "Ġwe": 413,
      "ĠR": 414,
      "os": 415,
      "ĠD": 416,
      "pp": 417,
      "ain": 418,
      "ant": 419,
      "Ġ2": 420,
      "ĠE": 421,
      "nt": 422,
      "ĠF": 423,
      "oc": 424,
      "igh": 425,
      "rom": 426,
      "ld": 427,
      "ial": 428,
      "Ġby": 429,
      "Ġch": 430,
      "Ġcan": 431,
      "ort": 432,
      "ud": 433,
      "un": 434,
      "Ġat": 435,
      "Ġr": 436,
      "âĢĻ": 437,
      "ure": 438,
      "Ġle": 439,
      "Ġne": 440,
      "ĠL": 441,
      "Ġse": 442,
      "ical": 443,
      "Ġen": 444,
      "Ġha": 445,
      "ĠĠĠĠĠĠĠĠĠĠĠĠĠĠĠĠĠĠĠĠĠĠĠĠĠĠĠĠĠĠĠĠ": 446,
      "Ġfrom": 447,
      "ĠG": 448,
      "ĠN": 449,
      "art": 450,
      "Ġwas": 451,
      "ri": 452,
      "ions": 453,
      "og": 454,
      "ĠâĢ": 455,
      "rou": 456,
      "Ġsh": 457,
      "Ġsp": 458,
      "ap": 459,
      "all": 460,
      "ight": 461,
      "ag": 462,
      "Ġwor": 463,
      "pl": 464,
      "ine": 465,
      "Ġab": 466,
      "our": 467,
      "gh": 468,
      "ere": 469,
      "out": 470,
      "Ġim": 471,
      "Ġthis": 472,
      "Ġyour": 473,
      "Ġint": 474,
      "Ġnot": 475,
      "Ġhave": 476,
      "ust": 477,
      "Ġpl": 478,
      "ard": 479,
      "Ġus": 480,
      "ome": 481,
      "ĠO": 482,
      "pt": 483,
      "iz": 484,
      "Ġtheir": 485,
      "act": 486,
      "ost": 487,
      "ich": 488,
      "are": 489,
      "ated": 490,
      "ther": 491,
      "ĠJ": 492,
      "per": 493,
      "00": 494,
      "ff": 495,
      "ell": 496,
      "age": 497,
      "ak": 498,
      "ous": 499,
      "--------": 500,
      "ations": 501,
      "du": 502,
      "Ġad": 503,
      "ans": 504,
      "ould": 505,
      "Ġcomp": 506,
      "ult": 507,
      "The": 508,
      "ide": 509,
      "ec": 510,
      "ast": 511,
      "'s": 512,
      "Ġcont": 513,
      "end": 514,
      "ip": 515,
      "Ġwhe": 516,
      "Ġk": 517,
      "ĠU": 518,
      "ru": 519,
      "Ġres": 520,
      "ib": 521,
      "Ġthey": 522,
      "Ġinc": 523,
      "ary": 524,
      "cc": 525,
      "Ġdis": 526,
      "ong": 527,
      "ance": 528,
      "ĠTh": 529,
      "ear": 530,
      "orm": 531,
      "ĠIn": 532,
      "Ġall": 533,
      "vel": 534,
      "ia": 535,
      "ie": 536,
      "ood": 537,
      "able": 538,
      "Ġwill": 539,
      "ual": 540,
      "Ġwhich": 541,
      "ep": 542,
      "ks": 543,
      "Ġte": 544,
      "ence": 545,
      "Ġcl": 546,
      "ire": 547,
      "ry": 548,
      "ind": 549,
      "ign": 550,
      "ents": 551,
      "ach": 552,
      "Ġimp": 553,
      "reat": 554,
      "Ġmore": 555,
      "so": 556,
      "Ġdo": 557,
      "Ġman": 558,
      "ber": 559,
      "av": 560,
      "Ġhas": 561,
      "Ġme": 562,
      "ction": 563,
      "Ġ19": 564,
      "Ġun": 565,
      "Ġother": 566,
      "ition": 567,
      "Ġj": 568,
      "ress": 569,
      "ater": 570,
      "ĠĠĠ": 571,
      "Ġapp": 572,
      "ild": 573,
      "ass": 574,
      "ces": 575,
      "Ġabout": 576,
      "oo": 577,
      "ice": 578,
      "Ġper": 579,
      "Ġar": 580,
      "ike": 581,
      "ĠSt": 582,
      "ake": 583,
      "Ġalso": 584,
      "ĠK": 585,
      "Ġbut": 586,
      "one": 587,
      "ors": 588,
      "Ġpre": 589,
      "ime": 590,
      "ue": 591,
      "Ġ3": 592,
      "Ġev": 593,
      "ory": 594,
      "Ġone": 595,
      "ens": 596,
      "nder": 597,
      "ack": 598,
      "very": 599,
      "ace": 600,
      "Ġcomm": 601,
      "ase": 602,
      "Ġout": 603,
      "ile": 604,
      "Ġpart": 605,
      "ish": 606,
      "ord": 607,
      "âĢĿ": 608,
      "rit": 609,
      "Ġso": 610,
      "ang": 611,
      "form": 612,
      "au": 613,
      "Ġthem": 614,
      "Ġwere": 615,
      "ric": 616,
      "ose": 617,
      "ount": 618,
      "Ġsc": 619,
      "Ġsy": 620,
      "ub": 621,
      "olog": 622,
      "ĠCh": 623,
      "Ġ20": 624,
      "Ġstud": 625,
      "ame": 626,
      "Ġinto": 627,
      "Ġpe": 628,
      "now": 629,
      "ound": 630,
      "Ġqu": 631,
      "rough": 632,
      "Ġthese": 633,
      "iff": 634,
      "ings": 635,
      "ĠIt": 636,
      "Ġup": 637,
      "low": 638,
      "Ġ\"": 639,
      "Ġwho": 640,
      "ities": 641,
      "Ġfe": 642,
      "Ġtra": 643,
      "ree": 644,
      "ian": 645,
      "Ġbec": 646,
      "Ġind": 647,
      "Ġlike": 648,
      "Ġem": 649,
      ").": 650,
      "ific": 651,
      "Ġhow": 652,
      "ĠV": 653,
      "ĠĠĠĠĠĠĠĠĠĠĠĠĠĠĠĠĠĠĠĠĠĠĠĠĠĠĠĠĠĠĠĠĠĠĠĠĠĠĠĠĠĠĠĠĠĠĠĠĠĠĠĠĠĠĠĠĠĠĠĠĠĠĠĠ": 654,
      "Ġro": 655,
      "king": 656,
      "ite": 657,
      "Ġour": 658,
      "ates": 659,
      "Ġhis": 660,
      "ating": 661,
      "ays": 662,
      "ail": 663,
      "Ġits": 664,
      "ph": 665,
      "ments": 666,
      "ĠThis": 667,
      "ĠâĢľ": 668,
      "Ġunder": 669,
      "Ġwhen": 670,
      "Ġsome": 671,
      "Ġbet": 672,
      "Ġrec": 673,
      "ons": 674,
      "ious": 675,
      "erv": 676,
      "ople": 677,
      "ond": 678,
      "Ġdiff": 679,
      "lect": 680,
      "Ġcons": 681,
      "Ġmay": 682,
      "Ġcol": 683,
      "les": 684,
      "Ġtr": 685,
      "ts": 686,
      "ne": 687,
      "ning": 688,
      "ĠY": 689,
      "Ġtime": 690,
      "we": 691,
      "Ġover": 692,
      "ĠâĢĵ": 693,
      "ll": 694,
      "tern": 695,
      "ally": 696,
      "Ġag": 697,
      "ough": 698,
      "Ġgo": 699,
      "vers": 700,
      "lud": 701,
      "Ġthere": 702,
      "ove": 703,
      "lic": 704,
      "alth": 705,
      "ms": 706,
      "ys": 707,
      "Ġthan": 708,
      "Ġdes": 709,
      "Ġhel": 710,
      "Ġact": 711,
      "Ġacc": 712,
      "te": 713,
      "Ġknow": 714,
      "Ġpeople": 715,
      "Ġsuch": 716,
      "Ġrel": 717,
      "ren": 718,
      "Ġhelp": 719,
      "Ġra": 720,
      "row": 721,
      "uring": 722,
      "Ġuse": 723,
      "ob": 724,
      "cess": 725,
      "ov": 726,
      "irst": 727,
      "ative": 728,
      "ics": 729,
      "red": 730,
      "Ġ4": 731,
      "Ġthrough": 732,
      "Ġyear": 733,
      "Ġ-": 734,
      "stem": 735,
      "velop": 736,
      "Ġeff": 737,
      "ple": 738,
      "Ġbeen": 739,
      "Ġneed": 740,
      "mer": 741,
      "ject": 742,
      "ful": 743,
      "ular": 744,
      "Ġinclud": 745,
      "round": 746,
      "Ġnew": 747,
      "yp": 748,
      "ause": 749,
      "ient": 750,
      "ures": 751,
      "Ġprov": 752,
      "ational": 753,
      "ced": 754,
      "Ġpr": 755,
      "Ġsa": 756,
      "Ġtw": 757,
      "Ġwhat": 758,
      "Ġbl": 759,
      "Ġph": 760,
      "Ġspec": 761,
      "Ġrep": 762,
      "eth": 763,
      "Ġam": 764,
      "Ġwork": 765,
      "ĠĠĠĠĠĠĠĠĠĠĠĠ": 766,
      "ract": 767,
      "als": 768,
      "Ġgen": 769,
      "Ġreg": 770,
      "Ġ5": 771,
      "Ġoff": 772,
      "Ġmost": 773,
      "Ġif": 774,
      "ility": 775,
      "Ġdiffere": 776,
      "Ġac": 777,
      "Ġany": 778,
      "ark": 779,
      "iet": 780,
      "hed": 781,
      "old": 782,
      "ool": 783,
      "rib": 784,
      "oth": 785,
      "Ġhad": 786,
      "oin": 787,
      "),": 788,
      "Ġinv": 789,
      "ath": 790,
      "Ġdevelop": 791,
      "Ġass": 792,
      "Ġprodu": 793,
      "ise": 794,
      "----------------": 795,
      "ĠUn": 796,
      "ook": 797,
      "hen": 798,
      "Ġexp": 799,
      "ween": 800,
      "fter": 801,
      "Ġused": 802,
      "Ġwould": 803,
      "uc": 804,
      "Ġ201": 805,
      "Ġfirst": 806,
      "Ġsystem": 807,
      "ting": 808,
      "ased": 809,
      "erm": 810,
      "tain": 811,
      "chn": 812,
      "Ġadd": 813,
      "oss": 814,
      "Ġbetween": 815,
      "Ġdec": 816,
      "In": 817,
      "Ġmany": 818,
      "Ġrem": 819,
      "ef": 820,
      "ten": 821,
      "Ġlear": 822,
      "ange": 823,
      "ife": 824,
      "Ġhealth": 825,
      "Ġno": 826,
      "ower": 827,
      "Ġinf": 828,
      "ew": 829,
      "ied": 830,
      "Ġchild": 831,
      "Ġsur": 832,
      "ible": 833,
      "rop": 834,
      "âĢĵ": 835,
      "ng": 836,
      "Ġtwo": 837,
      "Ġob": 838,
      "iss": 839,
      "gan": 840,
      "Ġinter": 841,
      "arch": 842,
      "ss": 843,
      "Ġexam": 844,
      "ural": 845,
      "own": 846,
      "Ġdisc": 847,
      "sel": 848,
      "Ġonly": 849,
      "Ġinst": 850,
      "its": 851,
      "Ġpers": 852,
      "hes": 853,
      "Ġatt": 854,
      "cy": 855,
      "Ġwhere": 856,
      "Ġtrans": 857,
      "xt": 858,
      "Ġsupp": 859,
      "##": 860,
      "ram": 861,
      "Ġvar": 862,
      "aw": 863,
      "erg": 864,
      "Ġexper": 865,
      "stand": 866,
      "oy": 867,
      "Ġmod": 868,
      "Ġwell": 869,
      "Ġher": 870,
      "Ġfl": 871,
      "ident": 872,
      "ness": 873,
      "Ġsub": 874,
      "ience": 875,
      "ily": 876,
      "ble": 877,
      "ology": 878,
      "ever": 879,
      "ution": 880,
      "ata": 881,
      "Ġimport": 882,
      "eg": 883,
      "ines": 884,
      "hat": 885,
      "Ġsm": 886,
      "ict": 887,
      "aking": 888,
      "ĠHe": 889,
      "Ġbu": 890,
      "Ġsoc": 891,
      "ade": 892,
      "Ġpres": 893,
      "wn": 894,
      "Ġco": 895,
      "Ġ6": 896,
      "ick": 897,
      "ives": 898,
      "Ġhigh": 899,
      "Ġexpl": 900,
      "Ġsign": 901,
      "Ġdifferent": 902,
      "Ġwater": 903,
      "Ġform": 904,
      "fore": 905,
      "Ġworld": 906,
      "get": 907,
      "Ġtechn": 908,
      "ered": 909,
      "ues": 910,
      "Ġcould": 911,
      "Ġpol": 912,
      "Ġshould": 913,
      "ism": 914,
      "Ġresp": 915,
      "hip": 916,
      "cept": 917,
      "Ġcommun": 918,
      "Ġ18": 919,
      "Ġevery": 920,
      "Ġget": 921,
      "Ġsim": 922,
      "ature": 923,
      "ants": 924,
      "ited": 925,
      "Ġtyp": 926,
      "Ġ200": 927,
      "Ġnum": 928,
      "ices": 929,
      "vent": 930,
      "Ġdi": 931,
      "ential": 932,
      "Ġmake": 933,
      "Ġmed": 934,
      "land": 935,
      "Ġref": 936,
      "urn": 937,
      "ron": 938,
      "ists": 939,
      "ft": 940,
      "ward": 941,
      "Ġeven": 942,
      "chool": 943,
      "Ġke": 944,
      "Ġcre": 945,
      "Ġprocess": 946,
      "ink": 947,
      "Ġhum": 948,
      "ection": 949,
      "Ġ0": 950,
      "iqu": 951,
      "Ġeffect": 952,
      "Ġduring": 953,
      "ins": 954,
      "Ġrese": 955,
      "Ġins": 956,
      "Ġear": 957,
      "ollow": 958,
      "ically": 959,
      "meric": 960,
      "uch": 961,
      "Ġdet": 962,
      "cer": 963,
      "Ġinform": 964,
      "Ġyears": 965,
      "Ġart": 966,
      "Ġed": 967,
      "Ġjust": 968,
      "ruct": 969,
      "Ġpat": 970,
      "Ġstr": 971,
      "Ġafter": 972,
      "Ġeach": 973,
      "Ġcar": 974,
      "iron": 975,
      "ted": 976,
      "ĠAl": 977,
      "other": 978,
      "Ġcall": 979,
      "Ġsk": 980,
      "Ġwhile": 981,
      "ps": 982,
      "arm": 983,
      "Ġloc": 984,
      "ize": 985,
      "iew": 986,
      "ages": 987,
      "ivid": 988,
      "ized": 989,
      "Ġlead": 990,
      "..": 991,
      "Ġset": 992,
      "Ġcount": 993,
      "ĠAs": 994,
      "Ġval": 995,
      "Ġsec": 996,
      "led": 997,
      "Ġcent": 998,
      "Ġway": 999,
      "ually": 1000,
      "Ġ7": 1001,
      "Ġlong": 1002,
      "Ġincre": 1003,
      "Ġrequ": 1004,
      "Ġsee": 1005,
      "Ġgra": 1006,
      "Ġfound": 1007,
      "Ġusing": 1008,
      "Ġthose": 1009,
      "Ġext": 1010,
      "Ġlife": 1011,
      "Ġgener": 1012,
      "Ġthen": 1013,
      "Ġbecause": 1014,
      "omm": 1015,
      "Ġdist": 1016,
      "Ġfam": 1017,
      "Ġunderstand": 1018,
      "Ġent": 1019,
      "ien": 1020,
      "Ġdata": 1021,
      "Ġcomple": 1022,
      "Ġshe": 1023,
      "ĠWe": 1024,
      "con": 1025,
      "Ġresult": 1026,
      "Ġhist": 1027,
      "ĠCon": 1028,
      "**": 1029,
      "ĠAmeric": 1030,
      "Ġpartic": 1031,
      "Ġprog": 1032,
      "ĠHow": 1033,
      "ĠFor": 1034,
      "Ġfollow": 1035,
      "ds": 1036,
      "Ġread": 1037,
      "Ġwrit": 1038,
      "ality": 1039,
      "Ġdef": 1040,
      "Ġfact": 1041,
      "ork": 1042,
      "20": 1043,
      "Ġimportant": 1044,
      "Ġbeing": 1045,
      "ĠĠĠĠĠĠ": 1046,
      "Ġperson": 1047,
      "ĠPro": 1048,
      "imes": 1049,
      "ases": 1050,
      "Ġlar": 1051,
      "io": 1052,
      "Ġmain": 1053,
      "ĠThey": 1054,
      "Ġmy": 1055,
      "Ġmin": 1056,
      "ody": 1057,
      "Ġaut": 1058,
      "Ġboth": 1059,
      "Ġfun": 1060,
      "Ġgrow": 1061,
      "ck": 1062,
      "ublic": 1063,
      "Ġown": 1064,
      "eng": 1065,
      "viron": 1066,
      "ĠAn": 1067,
      "Ġback": 1068,
      "Ġfind": 1069,
      "Ġ8": 1070,
      "ather": 1071,
      "Ġ10": 1072,
      "Ġsol": 1073,
      "dition": 1074,
      "ivers": 1075,
      "Ġstudents": 1076,
      "Ġcur": 1077,
      "ved": 1078,
      "iel": 1079,
      "Ġright": 1080,
      "Ġdep": 1081,
      "ĠAr": 1082,
      "gg": 1083,
      "19": 1084,
      "Th": 1085,
      "ving": 1086,
      "inal": 1087,
      "Ġvery": 1088,
      "Ġinformation": 1089,
      "Ġmon": 1090,
      "ves": 1091,
      "any": 1092,
      "Ġserv": 1093,
      "Ġplay": 1094,
      "tle": 1095,
      "Ġcap": 1096,
      "Ġfood": 1097,
      "cl": 1098,
      "Ġwithin": 1099,
      "Ġdoes": 1100,
      "Ġpract": 1101,
      "over": 1102,
      "Ġchar": 1103,
      "ale": 1104,
      "Ġdesign": 1105,
      "Ġgl": 1106,
      "Ġav": 1107,
      "ĠĠĠĠĠĠĠĠĠĠĠĠĠĠĠĠĠĠĠĠĠĠĠĠĠĠĠĠĠĠĠĠĠĠĠĠĠĠĠĠĠĠĠĠĠĠĠĠĠĠĠĠĠĠĠĠĠĠĠĠĠĠĠĠĠĠĠĠĠĠĠĠĠĠĠĠĠĠĠĠĠĠĠĠĠĠĠĠĠĠĠĠĠĠĠĠĠĠĠĠĠĠĠĠĠĠĠĠĠĠĠĠĠĠĠĠĠĠĠĠĠĠĠĠĠĠĠĠ": 1108,
      "ĠĠĠĠĠ": 1109,
      "Ġbefore": 1110,
      "ional": 1111,
      "ĠInd": 1112,
      "ividual": 1113,
      "Ġpop": 1114,
      "ty": 1115,
      "Ġprovid": 1116,
      "ĠSp": 1117,
      "Ġche": 1118,
      "Ġmem": 1119,
      "Ġcor": 1120,
      "Ġlevel": 1121,
      "nce": 1122,
      "Ġend": 1123,
      "ering": 1124,
      "Ġstudy": 1125,
      "Ġcare": 1126,
      "Ġmade": 1127,
      "Ġpower": 1128,
      "Ġaround": 1129,
      "anc": 1130,
      "akes": 1131,
      "ier": 1132,
      ".,": 1133,
      "ĠRe": 1134,
      "Ġoften": 1135,
      "Ġgreat": 1136,
      "Ġgrou": 1137,
      "imate": 1138,
      "Ġmuch": 1139,
      "Ġchildren": 1140,
      "ax": 1141,
      "uss": 1142,
      "'t": 1143,
      "ital": 1144,
      "Ġ9": 1145,
      "ross": 1146,
      "Ġprot": 1147,
      "Ġorgan": 1148,
      "Ġschool": 1149,
      "Ġagain": 1150,
      "pect": 1151,
      "Ġvis": 1152,
      "Ġcult": 1153,
      "Ġgood": 1154,
      "ix": 1155,
      "Ġlit": 1156,
      "Ġess": 1157,
      "Ġbr": 1158,
      "ute": 1159,
      "Ġstart": 1160,
      "vironment": 1161,
      "oh": 1162,
      "Ġshow": 1163,
      "Ġsom": 1164,
      "Ġindividual": 1165,
      "Ġallow": 1166,
      "ral": 1167,
      "Ġconsid": 1168,
      "Ġproble": 1169,
      "itions": 1170,
      "ex": 1171,
      "iving": 1172,
      "ands": 1173,
      "Ġadv": 1174,
      "und": 1175,
      "Ġclass": 1176,
      "ĠThese": 1177,
      "Ġsupport": 1178,
      "ars": 1179,
      "Ġmight": 1180,
      "ĠSc": 1181,
      "Ġtoo": 1182,
      "read": 1183,
      "Ġgu": 1184,
      "up": 1185,
      "Ġeng": 1186,
      "Ġtake": 1187,
      "Ġexample": 1188,
      "ave": 1189,
      "Ġbel": 1190,
      "rol": 1191,
      "ĠYou": 1192,
      "Ġactiv": 1193,
      "iety": 1194,
      "Ġday": 1195,
      "Ġconf": 1196,
      "Ġequ": 1197,
      "Ġsmall": 1198,
      "ince": 1199,
      "Ġless": 1200,
      "Ġtreat": 1201,
      "Ġsaid": 1202,
      "Ġdown": 1203,
      "Ġlearn": 1204,
      "Ġelect": 1205,
      "Ġtest": 1206,
      "ĠIf": 1207,
      "Ġredu": 1208,
      "air": 1209,
      "Ġsame": 1210,
      "ets": 1211,
      "ergy": 1212,
      "rain": 1213,
      "Ġhuman": 1214,
      "day": 1215,
      "cent": 1216,
      "ock": 1217,
      "Ġcontin": 1218,
      "Ġposs": 1219,
      "the": 1220,
      "ters": 1221,
      "Ġresearch": 1222,
      "ah": 1223,
      "ium": 1224,
      "ared": 1225,
      "ĠNew": 1226,
      "omen": 1227,
      "der": 1228,
      "self": 1229,
      "Ġser": 1230,
      "ished": 1231,
      "Ġcalled": 1232,
      "Ġmat": 1233,
      "ĠAd": 1234,
      "aj": 1235,
      "ization": 1236,
      "Ġbuild": 1237,
      "Ġris": 1238,
      "els": 1239,
      "Ġincluding": 1240,
      "ĠĠĠĠĠĠĠ": 1241,
      "aus": 1242,
      "ulation": 1243,
      "Ġbody": 1244,
      "ven": 1245,
      "Ġpot": 1246,
      "Ġop": 1247,
      "acter": 1248,
      "com": 1249,
      "Ġplan": 1250,
      "Ġaff": 1251,
      "Ġpoin": 1252,
      "irect": 1253,
      "Ġcommon": 1254,
      "raph": 1255,
      "orn": 1256,
      "ources": 1257,
      "rent": 1258,
      "ĠDe": 1259,
      "ected": 1260,
      "ĠSe": 1261,
      "Ġconst": 1262,
      "Ġnumber": 1263,
      "Ġbeh": 1264,
      "000": 1265,
      "aterial": 1266,
      "Ġstate": 1267,
      "Ġest": 1268,
      "Ġpo": 1269,
      "itive": 1270,
      "Ġappro": 1271,
      "Ġeduc": 1272,
      "ories": 1273,
      "Ġocc": 1274,
      "iness": 1275,
      "Ġident": 1276,
      "ethod": 1277,
      "Ġthree": 1278,
      "Ġquest": 1279,
      "Ġmet": 1280,
      "Ġnow": 1281,
      "ury": 1282,
      "Ġprof": 1283,
      "ĠWh": 1284,
      "Ġcle": 1285,
      "Ġanal": 1286,
      "ired": 1287,
      "ability": 1288,
      "ash": 1289,
      "lish": 1290,
      "line": 1291,
      ".âĢĿ": 1292,
      "Ġsocial": 1293,
      "Ġcell": 1294,
      "Ġgover": 1295,
      "Ġmust": 1296,
      "way": 1297,
      "Ġpos": 1298,
      "Ġthough": 1299,
      "Ġimpro": 1300,
      "angu": 1301,
      "rodu": 1302,
      "Ġiss": 1303,
      "ull": 1304,
      "ify": 1305,
      "Ġsignific": 1306,
      "ination": 1307,
      "Ġcreat": 1308,
      "ug": 1309,
      "Ġdise": 1310,
      "Ġdem": 1311,
      "10": 1312,
      "Ġenvironment": 1313,
      "ining": 1314,
      "Ġknown": 1315,
      "ason": 1316,
      "esp": 1317,
      "ries": 1318,
      "ner": 1319,
      "Ġcour": 1320,
      "Ġhim": 1321,
      "ateg": 1322,
      "por": 1323,
      "hers": 1324,
      "ĠSh": 1325,
      "ined": 1326,
      "oun": 1327,
      "Ġide": 1328,
      "ĠEng": 1329,
      "Ġinvol": 1330,
      "Ġprom": 1331,
      "Ġ&": 1332,
      "oci": 1333,
      "ills": 1334,
      "Ġlearning": 1335,
      "outh": 1336,
      "ouse": 1337,
      "Ġdid": 1338,
      "ern": 1339,
      "ĠAnd": 1340,
      "Ġgovern": 1341,
      "ration": 1342,
      "erest": 1343,
      "ental": 1344,
      "inc": 1345,
      "Ġdel": 1346,
      "ĠEx": 1347,
      "ains": 1348,
      "Ġvarious": 1349,
      "de": 1350,
      "Ġele": 1351,
      "Ġplace": 1352,
      "less": 1353,
      "Ġmaterial": 1354,
      "Ġmus": 1355,
      "âĢĶ": 1356,
      "Ġproduct": 1357,
      "Ġlet": 1358,
      "Ġconn": 1359,
      "Ġpur": 1360,
      "ision": 1361,
      "to": 1362,
      "iven": 1363,
      "ĠBut": 1364,
      "Ġwant": 1365,
      "ton": 1366,
      "Ġeas": 1367,
      "ĠBy": 1368,
      "ids": 1369,
      "Ġchange": 1370,
      "This": 1371,
      "Ġmethod": 1372,
      "Ġben": 1373,
      "Ġdevelopment": 1374,
      "reen": 1375,
      "Ġbo": 1376,
      "ior": 1377,
      "bers": 1378,
      "az": 1379,
      "iversity": 1380,
      "Ġchang": 1381,
      "ield": 1382,
      "pr": 1383,
      "ank": 1384,
      "iod": 1385,
      "ption": 1386,
      "Ġ15": 1387,
      "Ġsym": 1388,
      "orts": 1389,
      "oms": 1390,
      "amp": 1391,
      "ense": 1392,
      "ples": 1393,
      "iver": 1394,
      "Ġopp": 1395,
      "ccess": 1396,
      "ĠThere": 1397,
      "Ġret": 1398,
      "ially": 1399,
      "ĠIs": 1400,
      "Ġreal": 1401,
      "cing": 1402,
      "ember": 1403,
      "Ġpresent": 1404,
      "Ġbetter": 1405,
      "ĠHowever": 1406,
      "Ġpass": 1407,
      "conom": 1408,
      "Ġphys": 1409,
      "Ġwithout": 1410,
      "What": 1411,
      "Ġve": 1412,
      "oring": 1413,
      "Ġ199": 1414,
      "atic": 1415,
      "Ġperform": 1416,
      "ological": 1417,
      "ently": 1418,
      "Ġenergy": 1419,
      "Ġpublic": 1420,
      "Ġfeel": 1421,
      "ead": 1422,
      "ording": 1423,
      "ats": 1424,
      "Ġsaf": 1425,
      "Ġlarge": 1426,
      "||": 1427,
      "Ġpar": 1428,
      "Ġdr": 1429,
      "ger": 1430,
      "Ġhand": 1431,
      "Ġproject": 1432,
      "Ġfin": 1433,
      "Ġtem": 1434,
      "Ġcaus": 1435,
      "Ġimm": 1436,
      "Ġinclude": 1437,
      "ling": 1438,
      "lu": 1439,
      "Ġanother": 1440,
      "ĠQ": 1441,
      "ived": 1442,
      "ert": 1443,
      "Ġbest": 1444,
      "ances": 1445,
      "ĠCl": 1446,
      "Ġstill": 1447,
      "bs": 1448,
      "Ġhome": 1449,
      "Ġsit": 1450,
      "ends": 1451,
      "Ġbre": 1452,
      "Ġchall": 1453,
      "man": 1454,
      "ware": 1455,
      "Ġmean": 1456,
      "ocus": 1457,
      "Ġtop": 1458,
      "ee": 1459,
      "Ġproper": 1460,
      "Ġbelie": 1461,
      "eral": 1462,
      "ique": 1463,
      "Ġleg": 1464,
      "osed": 1465,
      "Ġbecome": 1466,
      "Ġbus": 1467,
      "Ġlight": 1468,
      "Ġsever": 1469,
      "Ġfac": 1470,
      "ĠĠĠĠĠĠĠĠĠ": 1471,
      "Ġinterest": 1472,
      "ograph": 1473,
      "Ġmark": 1474,
      "Ġhistory": 1475,
      "rap": 1476,
      "Ġens": 1477,
      "Ġprovide": 1478,
      "Ġdue": 1479,
      "ĠAt": 1480,
      "ames": 1481,
      "Ġkeep": 1482,
      "Ġagainst": 1483,
      ".\"": 1484,
      "Ġlangu": 1485,
      "Ġstand": 1486,
      "Ġsignificant": 1487,
      "ention": 1488,
      "ĠAmerican": 1489,
      "Ġamong": 1490,
      "par": 1491,
      "ĠPl": 1492,
      "ients": 1493,
      "me": 1494,
      "Ġ12": 1495,
      "Ġfamily": 1496,
      "agn": 1497,
      "Ġothers": 1498,
      "Ġoper": 1499,
      "Ġdon": 1500,
      "Ġet": 1501,
      "ilar": 1502,
      "ogn": 1503,
      "Ġair": 1504,
      "ertain": 1505,
      "ajor": 1506,
      "ĠTe": 1507,
      "ns": 1508,
      "Ġ[": 1509,
      "ik": 1510,
      "orth": 1511,
      "ĠTo": 1512,
      "be": 1513,
      "Ġ17": 1514,
      "Ġbas": 1515,
      "ards": 1516,
      "ĠĠĠĠĠĠĠĠĠĠĠ": 1517,
      "elf": 1518,
      "ways": 1519,
      "Ġdev": 1520,
      "Ġdirect": 1521,
      "Ġmeas": 1522,
      "Ġmar": 1523,
      "Ġcreate": 1524,
      "ĠCol": 1525,
      "Ġsl": 1526,
      "Ġbased": 1527,
      "atural": 1528,
      "Ġpain": 1529,
      "Ġlaw": 1530,
      "Ġcontrol": 1531,
      "ina": 1532,
      "urther": 1533,
      "erc": 1534,
      "Ġarea": 1535,
      "ified": 1536,
      "view": 1537,
      "Ġcr": 1538,
      "ote": 1539,
      "Ġfew": 1540,
      "Ġpotential": 1541,
      "rist": 1542,
      "arent": 1543,
      "Ġmove": 1544,
      "Ġseveral": 1545,
      "ĠPh": 1546,
      "Ġhapp": 1547,
      "Ġmult": 1548,
      "Ġbenef": 1549,
      "Ġmeans": 1550,
      "ĠZ": 1551,
      "ots": 1552,
      "ĠRes": 1553,
      "ource": 1554,
      "ret": 1555,
      "Ġimpact": 1556,
      "resent": 1557,
      "agement": 1558,
      "Ġfunction": 1559,
      "ething": 1560,
      "Ġopen": 1561,
      "Ġfocus": 1562,
      "Ġlook": 1563,
      "Ġparticular": 1564,
      "ĠCom": 1565,
      "Ġdesc": 1566,
      "gin": 1567,
      "Ġ16": 1568,
      "ĠWhen": 1569,
      "ians": 1570,
      "Ġtre": 1571,
      "Ġmaking": 1572,
      "Ġanim": 1573,
      "ication": 1574,
      "ĠUnited": 1575,
      "ency": 1576,
      "Ġ=": 1577,
      "Ġaccess": 1578,
      "Ġeconom": 1579,
      "hor": 1580,
      "Ġcrit": 1581,
      "ditions": 1582,
      "Ġearly": 1583,
      "Ġstruct": 1584,
      "Ġsecond": 1585,
      "Ġtoget": 1586,
      "Ġtogether": 1587,
      "Ġrest": 1588,
      "Ġfollowing": 1589,
      "Ġthings": 1590,
      "Ġant": 1591,
      "ane": 1592,
      "Ġenc": 1593,
      "Ġcal": 1594,
      "oid": 1595,
      "ortun": 1596,
      "Ġter": 1597,
      "Ġgroup": 1598,
      "here": 1599,
      "Ġsomething": 1600,
      "abor": 1601,
      "ĠĠĠĠĠĠĠĠĠĠ": 1602,
      "Ġlist": 1603,
      "eed": 1604,
      "Ġunt": 1605,
      "ploy": 1606,
      "Ġ.": 1607,
      "br": 1608,
      "Ġsuccess": 1609,
      "Ġprogram": 1610,
      "Ġwomen": 1611,
      "Ġaddition": 1612,
      "Ġrisk": 1613,
      "hy": 1614,
      "Ġfore": 1615,
      "ĠâĢĶ": 1616,
      ",âĢĿ": 1617,
      "port": 1618,
      "Ġold": 1619,
      "Ġavail": 1620,
      "Ġnon": 1621,
      "Ġmill": 1622,
      "uture": 1623,
      "lished": 1624,
      "Ġel": 1625,
      "As": 1626,
      "irc": 1627,
      "Ġmil": 1628,
      "Ġunderstanding": 1629,
      "Ġlow": 1630,
      "Ġperiod": 1631,
      "Ġorig": 1632,
      "Ġlim": 1633,
      "It": 1634,
      "Ġsystems": 1635,
      "work": 1636,
      "ission": 1637,
      "ĠSo": 1638,
      "ator": 1639,
      "Ġdisease": 1640,
      "Ġspecific": 1641,
      "St": 1642,
      "wards": 1643,
      "Ġlast": 1644,
      "ape": 1645,
      "ively": 1646,
      "Ġacross": 1647,
      "Ġ'": 1648,
      "ĠâĢĺ": 1649,
      "ĠComm": 1650,
      "Ġfri": 1651,
      "Ġalong": 1652,
      "Ġwar": 1653,
      "Ġhere": 1654,
      "Ġrole": 1655,
      "Ġ11": 1656,
      "âĢľ": 1657,
      "Ġblood": 1658,
      "arc": 1659,
      "ĠCan": 1660,
      "Ġlocal": 1661,
      "Ġcomput": 1662,
      "Ġtype": 1663,
      "Ġgr": 1664,
      "Ġcost": 1665,
      "ĠUniversity": 1666,
      "ĠWor": 1667,
      "Ġbi": 1668,
      "Ġrele": 1669,
      "Ġreport": 1670,
      "Ġinvest": 1671,
      "Ġtool": 1672,
      "Ġcertain": 1673,
      "Ġnear": 1674,
      "ĠEn": 1675,
      "une": 1676,
      "Ġgovernment": 1677,
      "Ġthink": 1678,
      "Ġassoci": 1679,
      "Ġteam": 1680,
      "Ġdiscuss": 1681,
      "Ġworks": 1682,
      "Ġobject": 1683,
      "ilities": 1684,
      "Ġbusiness": 1685,
      "Ġcontrib": 1686,
      "ĠOr": 1687,
      "urop": 1688,
      "Ġplant": 1689,
      "Ġbro": 1690,
      "Ġrelations": 1691,
      "Ġcurrent": 1692,
      "Ġmajor": 1693,
      "How": 1694,
      "ression": 1695,
      "idence": 1696,
      "Ġcome": 1697,
      "aper": 1698,
      "Ġcause": 1699,
      "Ġname": 1700,
      "Ġintern": 1701,
      "ledge": 1702,
      "ĠWhat": 1703,
      "Ġopt": 1704,
      "int": 1705,
      "Ġpress": 1706,
      "ending": 1707,
      "Ġorder": 1708,
      "Ġpossible": 1709,
      "Ġoccur": 1710,
      "ĠIm": 1711,
      "Ġareas": 1712,
      "Ġprevent": 1713,
      "Ġsince": 1714,
      "icle": 1715,
      "Ġtechnology": 1716,
      "Ġfre": 1717,
      "Ġpolit": 1718,
      "Ġfil": 1719,
      "Ġhig": 1720,
      "ised": 1721,
      "ole": 1722,
      "ones": 1723,
      "Ġwhy": 1724,
      "Ġrun": 1725,
      "Ġapplic": 1726,
      "Ġcomplex": 1727,
      "Ġcomb": 1728,
      "sy": 1729,
      "izing": 1730,
      "Ġlanguage": 1731,
      "utions": 1732,
      "ended": 1733,
      "Ġessential": 1734,
      "Ġindust": 1735,
      "Ġcharacter": 1736,
      "Ġfree": 1737,
      "Ġland": 1738,
      "Ġdra": 1739,
      "Ġcountry": 1740,
      "let": 1741,
      "olution": 1742,
      "--------------------------------": 1743,
      "Ġbook": 1744,
      "osp": 1745,
      "Ġrespons": 1746,
      "usion": 1747,
      "Ġconsider": 1748,
      "Ġbehav": 1749,
      "ĠStates": 1750,
      "Ġnatural": 1751,
      "Ġ14": 1752,
      "Ġcommunity": 1753,
      "ode": 1754,
      "ooks": 1755,
      "Ġtimes": 1756,
      "Ġcase": 1757,
      "ĠAf": 1758,
      "Ġspecies": 1759,
      "Ġrece": 1760,
      "Ġspecial": 1761,
      "oot": 1762,
      "Ġprofess": 1763,
      "aring": 1764,
      "Ġexperien": 1765,
      "ope": 1766,
      "iate": 1767,
      "Ġavailable": 1768,
      "Ġfuture": 1769,
      "18": 1770,
      "Ġexperience": 1771,
      "use": 1772,
      "Ġchalleng": 1773,
      "Ġable": 1774,
      "Ġfour": 1775,
      "Ġscient": 1776,
      "aster": 1777,
      "Ġview": 1778,
      "ysis": 1779,
      "ĠÂ": 1780,
      "alk": 1781,
      "asing": 1782,
      "by": 1783,
      "Ġuntil": 1784,
      "ights": 1785,
      "aging": 1786,
      "Ġinflu": 1787,
      "Ġpost": 1788,
      "app": 1789,
      "mber": 1790,
      "Ġdeterm": 1791,
      "ĠFr": 1792,
      "gen": 1793,
      "Ġtreatment": 1794,
      "ray": 1795,
      "Ġhead": 1796,
      "ĠLe": 1797,
      "Ġturn": 1798,
      "oad": 1799,
      "iation": 1800,
      "12": 1801,
      "put": 1802,
      "hem": 1803,
      "idd": 1804,
      "Ġ13": 1805,
      "ox": 1806,
      "Ġobs": 1807,
      "Ġskills": 1808,
      "Ġnet": 1809,
      "iting": 1810,
      "aces": 1811,
      "ored": 1812,
      "Ġvir": 1813,
      "Ġyoung": 1814,
      "ird": 1815,
      "urope": 1816,
      "Ġpoint": 1817,
      "Ġcourse": 1818,
      "ths": 1819,
      "Ġflow": 1820,
      "ĠJoh": 1821,
      "Ġways": 1822,
      "Ġsing": 1823,
      "though": 1824,
      "Ġkey": 1825,
      "ĠĠĠĠĠĠĠĠĠĠĠĠĠĠ": 1826,
      "ann": 1827,
      "Ġsay": 1828,
      "Ġstep": 1829,
      "Ġeducation": 1830,
      "ivity": 1831,
      "Ġsimilar": 1832,
      "Ġproblems": 1833,
      "Ġmen": 1834,
      "Ġage": 1835,
      "Ġill": 1836,
      "Ġhard": 1837,
      "Ġshort": 1838,
      "ĠChrist": 1839,
      "icult": 1840,
      "ides": 1841,
      "oura": 1842,
      "Ġtypes": 1843,
      "ĠWith": 1844,
      "Ġvol": 1845,
      "Ġlevels": 1846,
      "Ġstrong": 1847,
      "ek": 1848,
      "atory": 1849,
      "Ġself": 1850,
      "ĊĊ": 1851,
      "istic": 1852,
      "Ġrepresent": 1853,
      "Ġconsum": 1854,
      "Ġtoday": 1855,
      "ĠAll": 1856,
      "Ġstrateg": 1857,
      "af": 1858,
      "__": 1859,
      "Ġline": 1860,
      "Ġ$": 1861,
      "Ġsw": 1862,
      "Ġconcept": 1863,
      "ators": 1864,
      "Ġtry": 1865,
      "Ġimprove": 1866,
      "Ġwords": 1867,
      "Ġnecess": 1868,
      "isc": 1869,
      ",\"": 1870,
      "aps": 1871,
      "ĠOn": 1872,
      "of": 1873,
      "Ġissues": 1874,
      "Ġalways": 1875,
      "...": 1876,
      "face": 1877,
      "Ġey": 1878,
      "Ġindividuals": 1879,
      "Ġhy": 1880,
      "Ġconditions": 1881,
      "Ġseem": 1882,
      "ney": 1883,
      "Ġneeds": 1884,
      "Ġcirc": 1885,
      "ĠBe": 1886,
      "atch": 1887,
      "ggest": 1888,
      "Ġproblem": 1889,
      "atures": 1890,
      "ĠĠĠĠĠĠĠĠĠĠĠĠĠ": 1891,
      "chie": 1892,
      "Ġrelationship": 1893,
      "ont": 1894,
      "obal": 1895,
      "ales": 1896,
      "Ġpast": 1897,
      "Ġresources": 1898,
      "ĠMar": 1899,
      "yn": 1900,
      "Ġconcer": 1901,
      "50": 1902,
      "cle": 1903,
      "ring": 1904,
      "ĠNational": 1905,
      "aut": 1906,
      "selves": 1907,
      "Ġput": 1908,
      "ĠEurope": 1909,
      "etic": 1910,
      "Ġer": 1911,
      "Ġestab": 1912,
      "ured": 1913,
      "ables": 1914,
      "ĠBl": 1915,
      "Ġresults": 1916,
      "Ġmov": 1917,
      "min": 1918,
      "ires": 1919,
      "Ġtradition": 1920,
      "Ġstory": 1921,
      "apter": 1922,
      "Ġheart": 1923,
      "sw": 1924,
      "ibility": 1925,
      "Ġsuggest": 1926,
      "Ġexist": 1927,
      "Ġrequire": 1928,
      "ĠAfric": 1929,
      "Ġ198": 1930,
      "Ġlater": 1931,
      "ym": 1932,
      "ably": 1933,
      "Ġlittle": 1934,
      "Ġteac": 1935,
      "ĠOne": 1936,
      "11": 1937,
      "tt": 1938,
      "ĠThat": 1939,
      "ush": 1940,
      "Ġdig": 1941,
      "Ġspace": 1942,
      "Ġmaintain": 1943,
      "Ġworking": 1944,
      "Ġkind": 1945,
      "Ġprim": 1946,
      "Ġcells": 1947,
      "ained": 1948,
      "Ġmind": 1949,
      "Ġappear": 1950,
      "ipp": 1951,
      "Ġtemper": 1952,
      "Ġamount": 1953,
      "Ġhaving": 1954,
      "Ġknowledge": 1955,
      "ĠCent": 1956,
      "side": 1957,
      "ĠRep": 1958,
      "Ġgiven": 1959,
      "Ġchanges": 1960,
      "ĠMed": 1961,
      "ĠMay": 1962,
      "sc": 1963,
      "yl": 1964,
      "verse": 1965,
      "lement": 1966,
      "Ġbegin": 1967,
      "asc": 1968,
      "ĠUS": 1969,
      "ley": 1970,
      "Ġnext": 1971,
      "Ġgrowth": 1972,
      "We": 1973,
      "omes": 1974,
      "---": 1975,
      "ification": 1976,
      "Ġhistor": 1977,
      "ges": 1978,
      "ried": 1979,
      "Ġfar": 1980,
      "Ġaddress": 1981,
      "etimes": 1982,
      "inking": 1983,
      "lection": 1984,
      "duct": 1985,
      "Ġprotect": 1986,
      "thing": 1987,
      "ffic": 1988,
      "Ġauthor": 1989,
      "Ġprev": 1990,
      "ours": 1991,
      "Ġmot": 1992,
      "ising": 1993,
      "Ġopportun": 1994,
      "Ġemploy": 1995,
      "Ġdays": 1996,
      "ĠEar": 1997,
      "icro": 1998,
      "oney": 1999,
      "Ġpolic": 2000,
      "pos": 2001,
      "Ġactivities": 2002,
      "aves": 2003,
      "not": 2004,
      "ĠGod": 2005,
      "Ġusually": 2006,
      "If": 2007,
      "iple": 2008,
      "Ġconnect": 2009,
      "Ġrecord": 2010,
      "###": 2011,
      "Ġquestions": 2012,
      "Ġupon": 2013,
      "Ġinit": 2014,
      "Ġgive": 2015,
      "ĠSome": 2016,
      "Ġfurther": 2017,
      "acy": 2018,
      "ober": 2019,
      "Ġ30": 2020,
      "Ġsens": 2021,
      "Ġunique": 2022,
      "Ġdifficult": 2023,
      "Ġcountries": 2024,
      "for": 2025,
      "aken": 2026,
      "sp": 2027,
      "Ã©": 2028,
      "iam": 2029,
      "Ġachie": 2030,
      "ecially": 2031,
      "Ġmodel": 2032,
      "ĠĠĠĠĠĠĠĠĠĠĠĠĠĠĠ": 2033,
      "Ġclear": 2034,
      "ither": 2035,
      "Ġphysical": 2036,
      "Ġz": 2037,
      "ĠWar": 2038,
      "Ġplants": 2039,
      "ruction": 2040,
      "ream": 2041,
      "stit": 2042,
      "Ġaccount": 2043,
      "Ġincrease": 2044,
      "aching": 2045,
      "Ġrad": 2046,
      "Ġmakes": 2047,
      "Ġdam": 2048,
      "Ġparent": 2049,
      "utes": 2050,
      "ument": 2051,
      "Ġrecogn": 2052,
      "ler": 2053,
      "ĠĠĠĠĠĠĠĠĠĠĠĠĠĠĠĠĠĠĠĠĠĠĠĠĠĠĠĠĠĠĠĠĠĠĠĠĠĠĠĠĠĠĠĠĠĠĠĠĠĠĠĠĠĠĠĠĠĠĠĠĠĠĠĠĠĠĠĠĠĠĠĠĠĠĠĠĠĠĠĠĠĠĠĠĠĠĠĠĠĠĠĠĠĠĠĠĠĠĠĠĠĠĠĠĠĠĠĠĠĠĠĠĠĠĠĠĠĠĠĠĠĠĠĠĠĠĠĠĠĠĠĠĠĠĠĠĠĠĠĠĠĠĠĠĠĠĠĠĠĠĠĠĠĠĠĠĠĠĠĠĠĠĠĠĠĠĠĠĠĠĠĠĠĠĠĠĠĠĠĠĠĠĠĠĠĠĠĠĠĠĠĠĠĠĠĠĠĠĠĠĠĠĠĠĠĠĠĠĠĠĠĠĠĠĠĠĠĠĠĠĠĠĠĠĠĠĠĠĠĠĠĠĠĠĠĠĠĠĠĠĠĠĠĠĠĠĠĠĠĠĠĠĠĠĠĠ": 2054,
      "Ġcollect": 2055,
      "Ġcentury": 2056,
      "sych": 2057,
      "Ġdescrib": 2058,
      "ules": 2059,
      "Ġaway": 2060,
      "Ġpersonal": 2061,
      "ĠEm": 2062,
      "ĠWorld": 2063,
      "Ġliter": 2064,
      "Ġpred": 2065,
      "ery": 2066,
      "Ġhold": 2067,
      "16": 2068,
      "Ġvalue": 2069,
      "Ġesp": 2070,
      "ued": 2071,
      "Ġsum": 2072,
      "ĠBrit": 2073,
      "ĠCar": 2074,
      "ooking": 2075,
      "Ġtru": 2076,
      "acc": 2077,
      "Ġemb": 2078,
      "Ġnorm": 2079,
      "Ġever": 2080,
      "ĠAm": 2081,
      "Ġaffect": 2082,
      "iction": 2083,
      "amm": 2084,
      "ourn": 2085,
      "rict": 2086,
      "ww": 2087,
      "Ġthroughout": 2088,
      "Ġhigher": 2089,
      "Ġcomplete": 2090,
      "Ġterm": 2091,
      "Ġbig": 2092,
      "ott": 2093,
      "15": 2094,
      "ĠShe": 2095,
      "ptoms": 2096,
      "ĠEnglish": 2097,
      "Ġfull": 2098,
      "oman": 2099,
      "Ġtext": 2100,
      "Ġpopulation": 2101,
      "mit": 2102,
      "Ġsitu": 2103,
      "str": 2104,
      "An": 2105,
      "Ġground": 2106,
      "Ġside": 2107,
      "Ġleft": 2108,
      "ok": 2109,
      "Ġquality": 2110,
      "Ġpractice": 2111,
      "Ġmodern": 2112,
      "Ġbuilding": 2113,
      "Ġcy": 2114,
      "Ġexplore": 2115,
      "Ġpercent": 2116,
      "urity": 2117,
      "Ġnut": 2118,
      "Ġwhether": 2119,
      "Ġfactors": 2120,
      "ibr": 2121,
      "There": 2122,
      "anced": 2123,
      "Ġneg": 2124,
      "Ġcoll": 2125,
      "Ġeffects": 2126,
      "Ġassociated": 2127,
      "Ġenough": 2128,
      "Ġparticip": 2129,
      "eb": 2130,
      "Ġphot": 2131,
      "ison": 2132,
      "Ġbecame": 2133,
      "Ġmaterials": 2134,
      "ĠPr": 2135,
      "ĠTr": 2136,
      "hern": 2137,
      "Ġpaper": 2138,
      "Ġgoing": 2139,
      "ged": 2140,
      "ĠReg": 2141,
      "Ġsure": 2142,
      "ĠGerm": 2143,
      "Ġespecially": 2144,
      "atives": 2145,
      "Ġpatients": 2146,
      "Ġsound": 2147,
      "Ġintrodu": 2148,
      "plic": 2149,
      "Ġdeath": 2150,
      "iques": 2151,
      "Ġstat": 2152,
      "13": 2153,
      "Ġtowards": 2154,
      "lying": 2155,
      "Ġbrain": 2156,
      "Ġ----": 2157,
      "Ġcontain": 2158,
      "Ġpattern": 2159,
      "Ġfield": 2160,
      "Ġgroups": 2161,
      "Ġfund": 2162,
      "Ġonline": 2163,
      "Ġscience": 2164,
      "fact": 2165,
      "agine": 2166,
      "sequ": 2167,
      "Ġeffic": 2168,
      "Ġhelps": 2169,
      "Ġlikely": 2170,
      "elling": 2171,
      "apt": 2172,
      "ites": 2173,
      "cial": 2174,
      "erence": 2175,
      "ilt": 2176,
      "ips": 2177,
      "aim": 2178,
      "Ġrange": 2179,
      "epend": 2180,
      "Ġchem": 2181,
      "Ġnature": 2182,
      "Ġmanagement": 2183,
      "Ġlay": 2184,
      "Ġhowever": 2185,
      "Ġwriting": 2186,
      "ung": 2187,
      "Ġabove": 2188,
      "ĠSouth": 2189,
      "illed": 2190,
      "Ġinteract": 2191,
      "Ġanalysis": 2192,
      "Ġcomes": 2193,
      "arr": 2194,
      "Ġevent": 2195,
      "Ġrelig": 2196,
      "Ġsubject": 2197,
      "14": 2198,
      "Ġproducts": 2199,
      "unt": 2200,
      "ival": 2201,
      "ned": 2202,
      "ext": 2203,
      "Ġemot": 2204,
      "Ġhouse": 2205,
      "Ġstudies": 2206,
      "ĠGen": 2207,
      "To": 2208,
      "Ġclose": 2209,
      "Ġcho": 2210,
      "Ġensure": 2211,
      "Ġpub": 2212,
      "Ġmarket": 2213,
      "Ġsays": 2214,
      "ĠMan": 2215,
      "Ġinteg": 2216,
      "Ġregard": 2217,
      "ences": 2218,
      "Ġmembers": 2219,
      "Ġdetail": 2220,
      "fer": 2221,
      "17": 2222,
      "ĠJohn": 2223,
      "oose": 2224,
      "tal": 2225,
      "Ġbat": 2226,
      "``": 2227,
      "Ġcity": 2228,
      "Ġgeneral": 2229,
      "Ġquestion": 2230,
      "Ġcancer": 2231,
      "ety": 2232,
      "lex": 2233,
      "Ġlive": 2234,
      "Ġsingle": 2235,
      "Ġaspect": 2236,
      "alf": 2237,
      "Ġloss": 2238,
      "Ġproduction": 2239,
      "overed": 2240,
      "rel": 2241,
      "30": 2242,
      "ening": 2243,
      "nces": 2244,
      "ises": 2245,
      "ĠGe": 2246,
      "ĠStud": 2247,
      "Ġnever": 2248,
      "rug": 2249,
      "Ġask": 2250,
      "ĠPart": 2251,
      "Ġcases": 2252,
      "Ġmeet": 2253,
      "Ġliving": 2254,
      "Ġsimple": 2255,
      "Ġmusic": 2256,
      "bon": 2257,
      "Ġansw": 2258,
      "Ġindic": 2259,
      "Ġaccording": 2260,
      "augh": 2261,
      "ulations": 2262,
      "Ġreturn": 2263,
      "Ġlower": 2264,
      "Ġword": 2265,
      "Ġsymptoms": 2266,
      "Ġjoin": 2267,
      "chan": 2268,
      "verage": 2269,
      "Ch": 2270,
      "Ġdeep": 2271,
      "fully": 2272,
      "Ġpopular": 2273,
      "yle": 2274,
      "Ġmedical": 2275,
      "Ġur": 2276,
      "eter": 2277,
      "Ġprovides": 2278,
      "Ġleast": 2279,
      "ai": 2280,
      "Ġglobal": 2281,
      "Ġclimate": 2282,
      "ae": 2283,
      "ĠGu": 2284,
      "Ġsociety": 2285,
      "ĠNorth": 2286,
      "ĠAss": 2287,
      "rams": 2288,
      "Ġresearc": 2289,
      "Ġobserv": 2290,
      "ils": 2291,
      "Ġdom": 2292,
      "emic": 2293,
      "iol": 2294,
      "esc": 2295,
      "Ġservices": 2296,
      "Ġeffective": 2297,
      "Ġ197": 2298,
      "Ġwind": 2299,
      "Ġreduce": 2300,
      "Ġprinc": 2301,
      "Ġsurface": 2302,
      "ĠAust": 2303,
      "alu": 2304,
      "Ġmach": 2305,
      "Ġbir": 2306,
      "Ġactivity": 2307,
      "Ġengine": 2308,
      "Ġhealthy": 2309,
      "ze": 2310,
      "Ġabs": 2311,
      "most": 2312,
      "ĠX": 2313,
      "Ġmethods": 2314,
      "Ġmillion": 2315,
      "light": 2316,
      "roll": 2317,
      "For": 2318,
      "Ġsomeone": 2319,
      "Ġrespect": 2320,
      "lt": 2321,
      "Ġmeaning": 2322,
      "Ġpay": 2323,
      "ule": 2324,
      "ystem": 2325,
      "Ġrather": 2326,
      "Ġdiet": 2327,
      "ĠAb": 2328,
      "Ġstress": 2329,
      "ĠSu": 2330,
      "Ġcut": 2331,
      "Ġcust": 2332,
      "inary": 2333,
      "sh": 2334,
      "urch": 2335,
      "Ġfamil": 2336,
      "ately": 2337,
      "Ġfrequ": 2338,
      "reng": 2339,
      "Ġlives": 2340,
      "aged": 2341,
      "Ġoffic": 2342,
      "oph": 2343,
      "Ġpressure": 2344,
      "rect": 2345,
      "ask": 2346,
      "ĠHealth": 2347,
      "21": 2348,
      "Ġfall": 2349,
      "When": 2350,
      "med": 2351,
      "Ġquick": 2352,
      "II": 2353,
      "rec": 2354,
      "NA": 2355,
      "Ġ25": 2356,
      "oon": 2357,
      "Ġevents": 2358,
      "Ġcreated": 2359,
      "Ġthemselves": 2360,
      "itud": 2361,
      "Ġnational": 2362,
      "ĠIntern": 2363,
      "Ġnecessary": 2364,
      "Ġcompet": 2365,
      "Ġonce": 2366,
      "Ġut": 2367,
      "ened": 2368,
      "Ġred": 2369,
      "Ġcompon": 2370,
      "Ġcru": 2371,
      "Ġapproach": 2372,
      "reg": 2373,
      "earch": 2374,
      "Ġseen": 2375,
      "aries": 2376,
      "Ġreason": 2377,
      "Ġchallenges": 2378,
      "erous": 2379,
      "Ġdoc": 2380,
      "Ġinn": 2381,
      "Ġvers": 2382,
      "ivil": 2383,
      "ĠInt": 2384,
      "Ġwide": 2385,
      "Ġpolitical": 2386,
      "Ġthought": 2387,
      "Ġculture": 2388,
      "erve": 2389,
      "rand": 2390,
      "Ġsoft": 2391,
      "Ġparts": 2392,
      "Ġpositive": 2393,
      "Ġreally": 2394,
      "Al": 2395,
      "Ġallows": 2396,
      "Ġcalc": 2397,
      "Ġ+": 2398,
      "leep": 2399,
      "ĠCont": 2400,
      "Ġtools": 2401,
      "Ġwin": 2402,
      "Ġ**": 2403,
      "rad": 2404,
      "ster": 2405,
      "Ġsent": 2406,
      "Ġlot": 2407,
      "ender": 2408,
      "my": 2409,
      "Ġarr": 2410,
      "ĠCal": 2411,
      "ĠWhile": 2412,
      "Ġtechniques": 2413,
      "Ġarch": 2414,
      "ĠAfter": 2415,
      "Ġanimals": 2416,
      "Ġvari": 2417,
      "Ġability": 2418,
      "Ġencoura": 2419,
      "iment": 2420,
      "Ġcommunities": 2421,
      "ging": 2422,
      "Ġce": 2423,
      "urs": 2424,
      "ches": 2425,
      "Ġshare": 2426,
      "Ġport": 2427,
      "Ġlove": 2428,
      "):": 2429,
      "oes": 2430,
      "Ġbenefits": 2431,
      "imately": 2432,
      "like": 2433,
      "Ġbal": 2434,
      "aling": 2435,
      "Ġenvironmental": 2436,
      "Ġskin": 2437,
      "Ġemerg": 2438,
      "Ġmass": 2439,
      "Ġconsidered": 2440,
      "acks": 2441,
      "Ġneeded": 2442,
      "ĠNo": 2443,
      "Ġassess": 2444,
      "Ġtherap": 2445,
      "Ġsuper": 2446,
      "Ġrecomm": 2447,
      "Ġsize": 2448,
      "umb": 2449,
      "Ġarg": 2450,
      "hold": 2451,
      "ĠMe": 2452,
      "Ġincreased": 2453,
      "ming": 2454,
      "Ġsal": 2455,
      "Ġflu": 2456,
      "Ġsust": 2457,
      "Wh": 2458,
      "Ġpath": 2459,
      "istics": 2460,
      "based": 2461,
      "Ġann": 2462,
      "Ġsite": 2463,
      "ores": 2464,
      "ĠJan": 2465,
      "Ġexerc": 2466,
      "osis": 2467,
      "ready": 2468,
      "Ġsource": 2469,
      "Ġrelated": 2470,
      "Ġavoid": 2471,
      "Ġfriends": 2472,
      "Ġdeg": 2473,
      "Ġsafe": 2474,
      "enn": 2475,
      "Ġtar": 2476,
      "Ġbelow": 2477,
      "Ġ/": 2478,
      "Ġfive": 2479,
      "ĠApp": 2480,
      "Ġrequired": 2481,
      "Ġbreak": 2482,
      "cient": 2483,
      "Ġmoney": 2484,
      "het": 2485,
      "apan": 2486,
      "oll": 2487,
      "22": 2488,
      "Ġcritical": 2489,
      "ĠAct": 2490,
      "pro": 2491,
      "Ġcomputer": 2492,
      "Ġevidence": 2493,
      "ump": 2494,
      "Â°": 2495,
      "ĠHist": 2496,
      "ĠAmerica": 2497,
      "Ġste": 2498,
      "Ġharm": 2499,
      "Ġcolor": 2500,
      "Ġentire": 2501,
      "Ġeither": 2502,
      "Ġdeveloped": 2503,
      "Ġstreng": 2504,
      "Ġcultural": 2505,
      "Ġreading": 2506,
      "Ġprop": 2507,
      "aff": 2508,
      "Ġwhite": 2509,
      "wor": 2510,
      "aches": 2511,
      "Ġtraining": 2512,
      "Ġfail": 2513,
      "Ġincreasing": 2514,
      "'re": 2515,
      "Ġcompany": 2516,
      "Ġtraditional": 2517,
      "ID": 2518,
      "Ġservice": 2519,
      "Ġadult": 2520,
      "ER": 2521,
      "Ġbar": 2522,
      "Ġexc": 2523,
      "Ġarticle": 2524,
      "amed": 2525,
      "Ġ100": 2526,
      "Ġfish": 2527,
      "Ġ196": 2528,
      "Ġsometimes": 2529,
      "Ġregular": 2530,
      "bol": 2531,
      "Ġjob": 2532,
      "Ġyet": 2533,
      "Ġenh": 2534,
      "ĠQu": 2535,
      "Ġidea": 2536,
      "Ġstates": 2537,
      "Ġidentify": 2538,
      "Ġ----------------": 2539,
      "Ġver": 2540,
      "Ġrights": 2541,
      "200": 2542,
      "Ġalready": 2543,
      "Ġcame": 2544,
      "amin": 2545,
      "hib": 2546,
      "Ġfig": 2547,
      "Ġ--------": 2548,
      "Ġfeed": 2549,
      "Ġbehavior": 2550,
      "Ġdone": 2551,
      "Ġaction": 2552,
      "go": 2553,
      "ĠJu": 2554,
      "Ġexperiences": 2555,
      "iddle": 2556,
      "Ġweight": 2557,
      "aily": 2558,
      "Ġanaly": 2559,
      "Ġeconomic": 2560,
      "Ġtaken": 2561,
      "//": 2562,
      "Ġtaking": 2563,
      "joy": 2564,
      "ese": 2565,
      "Ġconduct": 2566,
      "ront": 2567,
      "aced": 2568,
      "istance": 2569,
      "ĠSoc": 2570,
      "Ġmor": 2571,
      "Ġprob": 2572,
      "ĠDr": 2573,
      "Ġessay": 2574,
      "Ġ24": 2575,
      "Ġspe": 2576,
      "itation": 2577,
      "Ġrate": 2578,
      "Ġfinanc": 2579,
      "Ġpractices": 2580,
      "ĠCons": 2581,
      "Ġdraw": 2582,
      "Ġwhole": 2583,
      "Ġgreen": 2584,
      "Ġpriv": 2585,
      "Ġaim": 2586,
      "reme": 2587,
      "Ġdoct": 2588,
      "come": 2589,
      "ctions": 2590,
      "Ġseason": 2591,
      "uel": 2592,
      "clusion": 2593,
      "Ġhab": 2594,
      "Ġrepl": 2595,
      "Ġbegan": 2596,
      "pid": 2597,
      "Ġvalues": 2598,
      "ners": 2599,
      "ography": 2600,
      "Ġge": 2601,
      "Ġdesigned": 2602,
      "aving": 2603,
      "://": 2604,
      "ma": 2605,
      "Ġstructure": 2606,
      "Ġpsych": 2607,
      "Ġelements": 2608,
      "ĠCO": 2609,
      "Ġoffer": 2610,
      "ournal": 2611,
      "Ġvide": 2612,
      "Ġtravel": 2613,
      "Ġeveryone": 2614,
      "ĠWill": 2615,
      "ropri": 2616,
      "astic": 2617,
      "uary": 2618,
      "ems": 2619,
      "Ġdest": 2620,
      "Ġconsist": 2621,
      "Ġcontent": 2622,
      "Ġstories": 2623,
      "Ġdemon": 2624,
      "Ġsat": 2625,
      "rast": 2626,
      "ĠAug": 2627,
      "itary": 2628,
      "Ġtook": 2629,
      "ony": 2630,
      "Ġsun": 2631,
      "Ġlab": 2632,
      "Ġactually": 2633,
      "Ġprec": 2634,
      "Ġcondition": 2635,
      "Ġinstead": 2636,
      "ulate": 2637,
      "Ġmechan": 2638,
      "Ġmicro": 2639,
      "Ġec": 2640,
      "Ġselect": 2641,
      "Ġbring": 2642,
      "Ġweek": 2643,
      "Ġmultiple": 2644,
      "ply": 2645,
      "ĠJapan": 2646,
      "Ġcreating": 2647,
      "Ġclean": 2648,
      "ĠMore": 2649,
      "orpor": 2650,
      "ĠPar": 2651,
      "Ġstudent": 2652,
      "Ġguid": 2653,
      "Ġresearchers": 2654,
      "ĠState": 2655,
      "ground": 2656,
      "Ġreact": 2657,
      "ĠPe": 2658,
      "ĠCo": 2659,
      "Ġface": 2660,
      "Ġdog": 2661,
      "Ġtell": 2662,
      "know": 2663,
      "Ġprote": 2664,
      "otes": 2665,
      "rew": 2666,
      "Ġposition": 2667,
      "Ġterms": 2668,
      "Ġindustry": 2669,
      "Ġperformance": 2670,
      "Ġimplement": 2671,
      "Ġremain": 2672,
      "ops": 2673,
      "Ġblack": 2674,
      "Ġcat": 2675,
      "Ġsepar": 2676,
      "ene": 2677,
      "ĠPer": 2678,
      "Ġgame": 2679,
      "Ġcommunication": 2680,
      "Ġincludes": 2681,
      "You": 2682,
      "ccording": 2683,
      "Ġattention": 2684,
      "estern": 2685,
      "ĠYour": 2686,
      "AS": 2687,
      "Ġrev": 2688,
      "ĠAg": 2689,
      "fect": 2690,
      "Âł": 2691,
      "isions": 2692,
      "avor": 2693,
      "Ġeth": 2694,
      "Ġdrug": 2695,
      "ĠOct": 2696,
      "ows": 2697,
      "ript": 2698,
      "ĠEarth": 2699,
      "uck": 2700,
      "ched": 2701,
      "Ġsense": 2702,
      "lor": 2703,
      "onse": 2704,
      "ensive": 2705,
      "org": 2706,
      "eds": 2707,
      "Ġprevious": 2708,
      "Ġmedic": 2709,
      "Ġcra": 2710,
      "Ġexpress": 2711,
      "Ġla": 2712,
      "uted": 2713,
      "Ġminim": 2714,
      "Ġcop": 2715,
      "Ġtarget": 2716,
      "lege": 2717,
      "Ġ194": 2718,
      "Ġenjoy": 2719,
      "Ġinsp": 2720,
      "Ġ50": 2721,
      "icles": 2722,
      "vere": 2723,
      "Ġmonths": 2724,
      "eration": 2725,
      "gest": 2726,
      "hing": 2727,
      "Ġsam": 2728,
      "Ġmeasure": 2729,
      "Ġparticularly": 2730,
      "Ġreflect": 2731,
      "Ġlif": 2732,
      "Ġsafety": 2733,
      "Ġeasy": 2734,
      "ume": 2735,
      "ĠKe": 2736,
      "rench": 2737,
      "ĠHis": 2738,
      "Ġspread": 2739,
      "Ġtemperature": 2740,
      "Ġtotal": 2741,
      "rown": 2742,
      "dom": 2743,
      "ĠYork": 2744,
      "hood": 2745,
      "Ġheav": 2746,
      "Ġx": 2747,
      "Ġheat": 2748,
      "Ġsources": 2749,
      "Ġforms": 2750,
      "Ġcontinue": 2751,
      "Ġdeb": 2752,
      "Ġsustain": 2753,
      "One": 2754,
      "ban": 2755,
      "Ġregion": 2756,
      "Ġcapt": 2757,
      "Ġmental": 2758,
      "standing": 2759,
      "Ġcompan": 2760,
      "Ġcustom": 2761,
      "oor": 2762,
      "play": 2763,
      "itor": 2764,
      "Ġcannot": 2765,
      "Ġparents": 2766,
      "Ġemp": 2767,
      "Ġ`": 2768,
      "Ġpublished": 2769,
      "Ġprovided": 2770,
      "minist": 2771,
      "Ġmedia": 2772,
      "new": 2773,
      "ufact": 2774,
      "Ġ21": 2775,
      "Ġleading": 2776,
      "Ġsoil": 2777,
      "Ġideas": 2778,
      "Ġitself": 2779,
      "Ġinvolved": 2780,
      "Ġsubst": 2781,
      "Ġshows": 2782,
      "ada": 2783,
      "ĠPol": 2784,
      "Ġproduce": 2785,
      "ĠMin": 2786,
      "mb": 2787,
      "Ġaware": 2788,
      "Ġgas": 2789,
      "ĠPre": 2790,
      "Ġdistrib": 2791,
      "ĠBritish": 2792,
      "Now": 2793,
      "25": 2794,
      "val": 2795,
      "Ġsuff": 2796,
      "Ġyourself": 2797,
      "rior": 2798,
      "ronic": 2799,
      "ĠMarch": 2800,
      "Ġhours": 2801,
      "Ġimportance": 2802,
      "Ġled": 2803,
      "ĠSec": 2804,
      "ĠAustral": 2805,
      "Ġhistorical": 2806,
      "ES": 2807,
      "Ġsex": 2808,
      "pril": 2809,
      "Ġstarted": 2810,
      "Ġreview": 2811,
      "Ġsurv": 2812,
      "Ġcrucial": 2813,
      "Ġoverall": 2814,
      "Ġthreat": 2815,
      "ister": 2816,
      "Ġfeatures": 2817,
      "Ġwritten": 2818,
      "ĠSept": 2819,
      "Ġaltern": 2820,
      "rig": 2821,
      "Ġsleep": 2822,
      "vant": 2823,
      "Ġpoints": 2824,
      "Ġsurround": 2825,
      "ĠIndia": 2826,
      "porary": 2827,
      "Ġhalf": 2828,
      "Ġclaim": 2829,
      "Ġmatter": 2830,
      "yond": 2831,
      "ĠComp": 2832,
      "Ġfarm": 2833,
      "Ġunit": 2834,
      "Ġchemical": 2835,
      "ĠUnder": 2836,
      "Ġdoing": 2837,
      "Ġbur": 2838,
      "Ġseries": 2839,
      "Ġfoot": 2840,
      "empt": 2841,
      "Ġinj": 2842,
      "ĠKing": 2843,
      "Ġinnov": 2844,
      "ĠDep": 2845,
      "Ġbeaut": 2846,
      "izations": 2847,
      "Ġoil": 2848,
      "Ġfire": 2849,
      "ĠEd": 2850,
      "Ġleaders": 2851,
      "Ġbooks": 2852,
      "ologies": 2853,
      "Ġfru": 2854,
      "AR": 2855,
      "Ġfat": 2856,
      "Ġlands": 2857,
      "ties": 2858,
      "Ġ--": 2859,
      "Ġ,": 2860,
      "Ġstrategies": 2861,
      "Ġcoun": 2862,
      "Ġdemonstr": 2863,
      "Ġfem": 2864,
      "part": 2865,
      "Ġdaily": 2866,
      "Ġdisord": 2867,
      "bo": 2868,
      "ustr": 2869,
      "ĠCount": 2870,
      "Ġcaused": 2871,
      "ĠRec": 2872,
      "aly": 2873,
      "Ġextra": 2874,
      "Ġprograms": 2875,
      "Ġbroad": 2876,
      "ĠSchool": 2877,
      "Ġnetwork": 2878,
      "Ġetc": 2879,
      "Ġbuilt": 2880,
      "hens": 2881,
      "rim": 2882,
      "vey": 2883,
      "Ġaud": 2884,
      "Ġfinancial": 2885,
      "pose": 2886,
      "Ġsix": 2887,
      "Ġspir": 2888,
      "enc": 2889,
      "Ġevalu": 2890,
      "Ġuses": 2891,
      "Ġrecent": 2892,
      "Ġcauses": 2893,
      "ricult": 2894,
      "Ġlink": 2895,
      "osing": 2896,
      "pe": 2897,
      "Ġmess": 2898,
      "Ġstay": 2899,
      "iency": 2900,
      "inating": 2901,
      ".)": 2902,
      "Ġimage": 2903,
      "ider": 2904,
      "Ġinstance": 2905,
      "ĠAugust": 2906,
      "Ġcontact": 2907,
      "ura": 2908,
      "ĠĠĠĠĠĠĠĠĠĠĠĠĠĠĠĠĠĠĠĠĠĠĠĠĠĠĠĠĠĠĠĠĠĠĠĠĠĠĠĠĠĠĠĠĠĠĠĠ": 2909,
      "Ġachieve": 2910,
      "gar": 2911,
      "Ġvariety": 2912,
      "Ġlog": 2913,
      "erson": 2914,
      "hel": 2915,
      "arily": 2916,
      "wh": 2917,
      "ĠLet": 2918,
      "Ġcheck": 2919,
      "Ġprimary": 2920,
      "lands": 2921,
      "rs": 2922,
      "Ġconc": 2923,
      "Ġdiagn": 2924,
      "Ġprocesses": 2925,
      "Ġpoll": 2926,
      "Ġsqu": 2927,
      "Ġaccept": 2928,
      "Ġpict": 2929,
      "Ġgreater": 2930,
      "Ġwebs": 2931,
      "ĠArt": 2932,
      "inally": 2933,
      "Ġ22": 2934,
      "Ġopportunities": 2935,
      "Ġtrue": 2936,
      "duc": 2937,
      "Ġdeveloping": 2938,
      "Ġi": 2939,
      "Ġbehind": 2940,
      "Ġoutside": 2941,
      "ana": 2942,
      "Ġcarbon": 2943,
      "Ġcommit": 2944,
      "Ġdiv": 2945,
      "Ġshap": 2946,
      "Ġtakes": 2947,
      "Ġbasic": 2948,
      "Ġvalu": 2949,
      "Ġelectric": 2950,
      "Ġdigital": 2951,
      "ĠSim": 2952,
      "Ġkids": 2953,
      "Ġprep": 2954,
      "ocr": 2955,
      "fort": 2956,
      "Ġinside": 2957,
      "Ġmom": 2958,
      "Ġmovement": 2959,
      "AT": 2960,
      "ĠResearch": 2961,
      "elt": 2962,
      "Ġlonger": 2963,
      "Ġschools": 2964,
      "Ġgrowing": 2965,
      "ĠTra": 2966,
      "Ġhtt": 2967,
      "ovember": 2968,
      "ille": 2969,
      "Ġsimply": 2970,
      "ials": 2971,
      "Ġappropri": 2972,
      "Ġalmost": 2973,
      "Ġviol": 2974,
      "ĠÂ·": 2975,
      "Ġresponse": 2976,
      "Ġpatterns": 2977,
      "rought": 2978,
      "Ġoriginal": 2979,
      "ĠChar": 2980,
      "ball": 2981,
      "ĠJanuary": 2982,
      "Ġdamage": 2983,
      "ades": 2984,
      "ĠJune": 2985,
      "Ġcross": 2986,
      "ĠApril": 2987,
      "ĠSeptember": 2988,
      "Ġremember": 2989,
      "Ġstandard": 2990,
      "ĠChina": 2991,
      "Ġcamp": 2992,
      "Ġslow": 2993,
      "omet": 2994,
      "Ġwild": 2995,
      "ĠOctober": 2996,
      "Ġsmo": 2997,
      "Ġprogress": 2998,
      "iples": 2999,
      "Ġones": 3000,
      "att": 3001,
      "mar": 3002,
      "ĠSw": 3003,
      "ios": 3004,
      "Ġâ": 3005,
      "Ġpage": 3006,
      "Ġissue": 3007,
      "ĠNe": 3008,
      "mon": 3009,
      "ength": 3010,
      "\".": 3011,
      "ĠJuly": 3012,
      "Ġcompared": 3013,
      "But": 3014,
      "Ġmanufact": 3015,
      "Ġappl": 3016,
      "artment": 3017,
      "Ġhumans": 3018,
      "Ġtransform": 3019,
      "Ġreve": 3020,
      "Ġsecurity": 3021,
      "Ġveget": 3022,
      "ĠEl": 3023,
      "Ġvacc": 3024,
      "Ġrefer": 3025,
      "Ġbelieve": 3026,
      "Ġtax": 3027,
      "Ġindepend": 3028,
      "Ġ23": 3029,
      "iber": 3030,
      "Ġgain": 3031,
      "Ġlate": 3032,
      "Ġheld": 3033,
      "overy": 3034,
      "ror": 3035,
      "Ġstop": 3036,
      "ĠUs": 3037,
      "itch": 3038,
      "Ġinternational": 3039,
      "Ġdefin": 3040,
      "ĠPres": 3041,
      "Ġthinking": 3042,
      "ederal": 3043,
      "abet": 3044,
      "ached": 3045,
      "Ġstru": 3046,
      "Ġsymbol": 3047,
      "oved": 3048,
      "Ġcorrect": 3049,
      "ellow": 3050,
      "Ġaverage": 3051,
      "Ġlooking": 3052,
      "ervation": 3053,
      "idge": 3054,
      "ĠFrench": 3055,
      "âĢ¦": 3056,
      "Ġrout": 3057,
      "Ġthing": 3058,
      "Ġwond": 3059,
      "cember": 3060,
      "ĠThrough": 3061,
      "Ġgetting": 3062,
      "ĠBar": 3063,
      "cell": 3064,
      "Ġfoods": 3065,
      "Ġtown": 3066,
      "Ġvisual": 3067,
      "Ġproviding": 3068,
      "ls": 3069,
      "Ġjour": 3070,
      "care": 3071,
      "Ġshown": 3072,
      "iring": 3073,
      "ĠGl": 3074,
      "Ġapplications": 3075,
      "Ġox": 3076,
      "ĠFeb": 3077,
      "Ġvirus": 3078,
      "room": 3079,
      "Ġnumbers": 3080,
      "Ġrequires": 3081,
      "Ġwood": 3082,
      "ided": 3083,
      "na": 3084,
      "Ġeat": 3085,
      "So": 3086,
      "24": 3087,
      "Ġnormal": 3088,
      "Ġvaluable": 3089,
      "Ġfram": 3090,
      "Ġefforts": 3091,
      "more": 3092,
      "Ġdoesn": 3093,
      "Ġtheory": 3094,
      "ding": 3095,
      "ĠMon": 3096,
      "isms": 3097,
      "ulated": 3098,
      "Ġspeed": 3099,
      "itect": 3100,
      "Ġpatient": 3101,
      "ounds": 3102,
      "ino": 3103,
      "Ġinfluence": 3104,
      "ĠMany": 3105,
      "Ġdecision": 3106,
      "oint": 3107,
      "Ġinvestig": 3108,
      "ension": 3109,
      "Ġcool": 3110,
      "Ġcontext": 3111,
      "Ġinstit": 3112,
      "ĠGo": 3113,
      "ilos": 3114,
      "Ġcover": 3115,
      "atively": 3116,
      "Ġteachers": 3117,
      "Ġfost": 3118,
      "Ġbab": 3119,
      "Ġhyd": 3120,
      "Ġcompanies": 3121,
      "Ġapprec": 3122,
      "ĠAc": 3123,
      "den": 3124,
      "ift": 3125,
      "Ġwrite": 3126,
      "Ġshape": 3127,
      "Ġ40": 3128,
      "ĠNovember": 3129,
      "Ġwarm": 3130,
      "izes": 3131,
      "Ġlack": 3132,
      "Ġaspects": 3133,
      "Ġbacter": 3134,
      "Ġquickly": 3135,
      "Ġsect": 3136,
      "Ġfa": 3137,
      "ĠHer": 3138,
      "Ġinterp": 3139,
      "Ex": 3140,
      "Ġbeyond": 3141,
      "itude": 3142,
      "Ġcollabor": 3143,
      "right": 3144,
      "asons": 3145,
      "Ġdifference": 3146,
      "Ġexact": 3147,
      "Im": 3148,
      "Ġcode": 3149,
      "inct": 3150,
      "Ġanimal": 3151,
      "23": 3152,
      "Ġsection": 3153,
      "Ġperspect": 3154,
      "Ġpolicy": 3155,
      "Ġgard": 3156,
      "ying": 3157,
      "ruary": 3158,
      "Ġmagn": 3159,
      "iers": 3160,
      "Ġdiverse": 3161,
      "itable": 3162,
      "ĠWilliam": 3163,
      "ĠIndian": 3164,
      "Ġ26": 3165,
      "itle": 3166,
      "ipl": 3167,
      "Ġwa": 3168,
      "Ġdevices": 3169,
      "head": 3170,
      "Ġvisit": 3171,
      "Ġ28": 3172,
      "Ġbecomes": 3173,
      "Ġnight": 3174,
      "ĠFrom": 3175,
      "oming": 3176,
      "Ġthird": 3177,
      "equ": 3178,
      "issions": 3179,
      "Ġful": 3180,
      "oles": 3181,
      "vention": 3182,
      "Ġwon": 3183,
      "ĠWest": 3184,
      "ĠFirst": 3185,
      "ĠSm": 3186,
      "Ġancient": 3187,
      "Ġvideo": 3188,
      "Ġpack": 3189,
      "Ġoffers": 3190,
      "Ġcivil": 3191,
      "ran": 3192,
      "ief": 3193,
      "Ġconcent": 3194,
      "overn": 3195,
      "ius": 3196,
      "By": 3197,
      "ĠOf": 3198,
      "iar": 3199,
      "ĠEuropean": 3200,
      "Ġforce": 3201,
      "ĠJew": 3202,
      "Ġeasily": 3203,
      "Ġcit": 3204,
      "Ġestablished": 3205,
      "Ġrelationships": 3206,
      "Ġsteps": 3207,
      "Ġscientists": 3208,
      "uk": 3209,
      "uth": 3210,
      "Ġsil": 3211,
      "Ġir": 3212,
      "lear": 3213,
      "Ġintegr": 3214,
      "Ġadj": 3215,
      "Ġactive": 3216,
      "Ġcele": 3217,
      "Ġsoftware": 3218,
      "ĠMc": 3219,
      "Ġattempt": 3220,
      "ipment": 3221,
      "phas": 3222,
      "Ġdyn": 3223,
      "Ġprofessional": 3224,
      "Ġdou": 3225,
      "Ġdocument": 3226,
      "Ġestablish": 3227,
      "chol": 3228,
      "odies": 3229,
      "Ġeye": 3230,
      "Ġquant": 3231,
      "Ġfinal": 3232,
      "ĠII": 3233,
      "emporary": 3234,
      "osure": 3235,
      "Ġincorpor": 3236,
      "ĠHar": 3237,
      "Ġadditional": 3238,
      "Ġtri": 3239,
      "Ġearl": 3240,
      "bor": 3241,
      "Ġtalk": 3242,
      "Ġpowerful": 3243,
      "uge": 3244,
      "anks": 3245,
      "where": 3246,
      "Ġscientific": 3247,
      "ĠScience": 3248,
      "Ġearth": 3249,
      "On": 3250,
      "avig": 3251,
      "yth": 3252,
      "Ġoptim": 3253,
      "term": 3254,
      "Ġdetermine": 3255,
      "Ġnamed": 3256,
      "Ġincluded": 3257,
      "oration": 3258,
      "Ġcard": 3259,
      "Ġult": 3260,
      "Ġtur": 3261,
      "Ġlat": 3262,
      "ĠDecember": 3263,
      "Ġapplication": 3264,
      "Ġeverything": 3265,
      "ĠAfrican": 3266,
      "Ġtree": 3267,
      "ĠMus": 3268,
      "inated": 3269,
      "Ġwall": 3270,
      "Ġdiseases": 3271,
      "ĠRuss": 3272,
      "Ġextreme": 3273,
      "Ġcomponents": 3274,
      "Ġinvolves": 3275,
      "enge": 3276,
      "Ġfasc": 3277,
      "oday": 3278,
      "illing": 3279,
      "ĠJust": 3280,
      "IS": 3281,
      "IN": 3282,
      "Ġgenerally": 3283,
      "Ġfamilies": 3284,
      "Ġnovel": 3285,
      "Ġresponsible": 3286,
      "Ġfriend": 3287,
      "Ġ27": 3288,
      "iter": 3289,
      "ously": 3290,
      "Ġball": 3291,
      "ham": 3292,
      "ĠOver": 3293,
      "Ġlegal": 3294,
      "ĠDo": 3295,
      "Ġhor": 3296,
      "Ġhar": 3297,
      "Ġjourney": 3298,
      "ancy": 3299,
      "Ġproduced": 3300,
      "Ġfeet": 3301,
      "roduction": 3302,
      "Ġrob": 3303,
      "Ġforest": 3304,
      "uries": 3305,
      "'ll": 3306,
      "iot": 3307,
      "ĠCour": 3308,
      "Ġprior": 3309,
      "back": 3310,
      "Ġwaste": 3311,
      "ĠAfrica": 3312,
      "Ġexpect": 3313,
      "Ġep": 3314,
      "aul": 3315,
      "ellig": 3316,
      "Ġtypically": 3317,
      "Ġconflic": 3318,
      "Ġtransport": 3319,
      "Ġpoor": 3320,
      "Ġserious": 3321,
      "Ġremains": 3322,
      "resh": 3323,
      "Ġple": 3324,
      "Ġago": 3325,
      "osition": 3326,
      "load": 3327,
      "Ġanswer": 3328,
      "Con": 3329,
      "ceed": 3330,
      "ĠAnt": 3331,
      "Ġinstall": 3332,
      "Ġconvers": 3333,
      "He": 3334,
      "Ġchapter": 3335,
      "Ġexamples": 3336,
      "ĠFebruary": 3337,
      "Ġrules": 3338,
      "oud": 3339,
      "iece": 3340,
      "oly": 3341,
      "Ġclin": 3342,
      "Ġhands": 3343,
      "Ġbelief": 3344,
      "ĠDem": 3345,
      "rition": 3346,
      "Ġhost": 3347,
      "Ġ\\": 3348,
      "Ġdang": 3349,
      "Ġadded": 3350,
      "ĠChristian": 3351,
      "Ġproced": 3352,
      "Ġmilitary": 3353,
      "Ġrich": 3354,
      "Ġdry": 3355,
      "igen": 3356,
      "Ġprojects": 3357,
      "atform": 3358,
      "Ġadop": 3359,
      "Ġuser": 3360,
      "Ġcontribute": 3361,
      "Ġmix": 3362,
      "ields": 3363,
      "Ġcapac": 3364,
      "Ġappropriate": 3365,
      "Ġreligious": 3366,
      "urg": 3367,
      "Ġang": 3368,
      "oe": 3369,
      "ĠNot": 3370,
      "alking": 3371,
      "Ġlocated": 3372,
      "Ġsett": 3373,
      "ĠĠĠĠĠĠĠĠĠĠĠĠĠĠĠĠĠ": 3374,
      "ky": 3375,
      "amic": 3376,
      "Ġgoal": 3377,
      "ĠInstit": 3378,
      "Ġattack": 3379,
      "Ġlines": 3380,
      "Ġpurpose": 3381,
      "ĠEduc": 3382,
      "ĠGerman": 3383,
      "Ġsold": 3384,
      "Ġexploring": 3385,
      "su": 3386,
      "Ġsearch": 3387,
      "Ġutil": 3388,
      "Ġbill": 3389,
      "Ġsn": 3390,
      "Ġreported": 3391,
      "Ġadvant": 3392,
      "Ġlarger": 3393,
      "Ġeyes": 3394,
      "Ġquite": 3395,
      "Ġthus": 3396,
      "olic": 3397,
      "Ġ2012": 3398,
      "Ġvit": 3399,
      "Ġpromot": 3400,
      "Ġstage": 3401,
      "Ġcommunic": 3402,
      "ĠOther": 3403,
      "Ġbase": 3404,
      "Ġhot": 3405,
      "40": 3406,
      "Ġautom": 3407,
      "ifically": 3408,
      "Ġdecre": 3409,
      "Ġroad": 3410,
      "haps": 3411,
      "ĠDav": 3412,
      "ĠCity": 3413,
      "Ġcentral": 3414,
      "Ġminutes": 3415,
      "Ġstri": 3416,
      "Ġmodels": 3417,
      "rag": 3418,
      "ĠPark": 3419,
      "Ġcompre": 3420,
      "amb": 3421,
      "Ġsuccessful": 3422,
      "istry": 3423,
      "Ġstrugg": 3424,
      "ĠRem": 3425,
      "Ġsoon": 3426,
      "Ġadapt": 3427,
      "ev": 3428,
      "Ġspirit": 3429,
      "Ġtrees": 3430,
      "Ġsignificantly": 3431,
      "Ġlimited": 3432,
      "Ġbit": 3433,
      "Ġchoose": 3434,
      "Ġteaching": 3435,
      "ĠTechn": 3436,
      "Ġtable": 3437,
      "Ġsituation": 3438,
      "Ġfast": 3439,
      "Ġund": 3440,
      "Ġmemory": 3441,
      "ica": 3442,
      "Ġvia": 3443,
      "Ġfit": 3444,
      "Ġstra": 3445,
      "Ġcontinu": 3446,
      "Ġdirectly": 3447,
      "Ġobtain": 3448,
      "ha": 3449,
      "Ġdevice": 3450,
      "Ġmother": 3451,
      "Ġregarding": 3452,
      "ĠInst": 3453,
      "ĠGreat": 3454,
      "water": 3455,
      "Ġelse": 3456,
      "Ġimmed": 3457,
      "Ġ2013": 3458,
      "ĠMy": 3459,
      "eal": 3460,
      "time": 3461,
      "ĠMod": 3462,
      "lation": 3463,
      "Ġestim": 3464,
      "Ġprinciples": 3465,
      "wide": 3466,
      "irm": 3467,
      "Ġprotection": 3468,
      "Ġcred": 3469,
      "Ġdemand": 3470,
      "iles": 3471,
      "acing": 3472,
      "axim": 3473,
      "Ġimmediate": 3474,
      "Ġnation": 3475,
      "Ġliterature": 3476,
      "ĠTw": 3477,
      "Ġ2010": 3478,
      "Ġsolar": 3479,
      "Ã¡": 3480,
      "Ġadminist": 3481,
      "Ġspeak": 3482,
      "Ġlo": 3483,
      "ĠChe": 3484,
      "Ġsupply": 3485,
      "ĠGree": 3486,
      "Ġperfect": 3487,
      "Ġmachine": 3488,
      "Ġreach": 3489,
      "Ġequipment": 3490,
      "Ġplaces": 3491,
      "ula": 3492,
      "Ġleaves": 3493,
      "Ġbreat": 3494,
      "Ġfavor": 3495,
      "Ġnegative": 3496,
      "ditionally": 3497,
      "cks": 3498,
      "Ġrates": 3499,
      "Ġgames": 3500,
      "ĠLear": 3501,
      "ĠInternational": 3502,
      "Ġexercise": 3503,
      "Ġproperty": 3504,
      "Ġisn": 3505,
      "ĠDevelop": 3506,
      "inks": 3507,
      "Ġsus": 3508,
      "ception": 3509,
      "olec": 3510,
      "ĠEngland": 3511,
      "useum": 3512,
      "Ġing": 3513,
      "Ġsolution": 3514,
      "Ġfront": 3515,
      "iful": 3516,
      "Ġdifferences": 3517,
      "Ġemphas": 3518,
      "Ġagree": 3519,
      "ĠCommun": 3520,
      "Ġinfection": 3521,
      "Ġimages": 3522,
      "Section": 3523,
      "Ġcateg": 3524,
      "ON": 3525,
      "abetes": 3526,
      "Ġsea": 3527,
      "ĠAlthough": 3528,
      "Ġrapid": 3529,
      "reet": 3530,
      "Ġsevere": 3531,
      "Ġfight": 3532,
      "Ġsolutions": 3533,
      "Ġlabor": 3534,
      "ĠHistory": 3535,
      "Ġlost": 3536,
      "Ġ193": 3537,
      "Ġord": 3538,
      "uments": 3539,
      "Ġbalance": 3540,
      "26": 3541,
      "Ġcontains": 3542,
      "ira": 3543,
      "Ġthous": 3544,
      "life": 3545,
      "vest": 3546,
      "che": 3547,
      "Ġcosts": 3548,
      "Ġbehavi": 3549,
      "____": 3550,
      "Ġshared": 3551,
      "ĠHere": 3552,
      "Ġbad": 3553,
      "ĠMost": 3554,
      "mission": 3555,
      "eks": 3556,
      "Ġtend": 3557,
      "Ġstructures": 3558,
      "Ġast": 3559,
      "AN": 3560,
      "ecause": 3561,
      "Ġhighly": 3562,
      "Ġmis": 3563,
      "Ġmember": 3564,
      "gy": 3565,
      "outhern": 3566,
      "IV": 3567,
      "Ġdiscover": 3568,
      "wise": 3569,
      "inese": 3570,
      "uman": 3571,
      "Ġjud": 3572,
      "Ġhabit": 3573,
      "Ġusers": 3574,
      "ĠĠĠĠĠĠĠĠĠĠĠĠĠĠĠĠĠĠĠĠ": 3575,
      "Ġrespond": 3576,
      "ĠOur": 3577,
      "Ġefficient": 3578,
      "ĠInc": 3579,
      "Ġarchitect": 3580,
      "Ġmention": 3581,
      "Ġguide": 3582,
      "ĠNow": 3583,
      "ancing": 3584,
      "ription": 3585,
      "Ġoptions": 3586,
      "Ġpan": 3587,
      "Ġreceived": 3588,
      "ara": 3589,
      "Ġ2011": 3590,
      "AC": 3591,
      "asks": 3592,
      "Ġlength": 3593,
      "Ġweb": 3594,
      "Ġmount": 3595,
      "Ġ*": 3596,
      "Ġgold": 3597,
      "Ġmeasures": 3598,
      "Ġcapital": 3599,
      "Ġveh": 3600,
      "Ġtiss": 3601,
      "Ġmonth": 3602,
      "Ġweather": 3603,
      "Ġtherefore": 3604,
      "Ġacid": 3605,
      "Ġgoals": 3606,
      "Ġtrying": 3607,
      "Ġtrust": 3608,
      "ashing": 3609,
      "Ġpredict": 3610,
      "Ġcolon": 3611,
      "lin": 3612,
      "Ġplatform": 3613,
      "Ġnumerous": 3614,
      "Ġwent": 3615,
      "80": 3616,
      "ico": 3617,
      "Ġroom": 3618,
      "cil": 3619,
      "Ġtesting": 3620,
      "Ġcarry": 3621,
      "iforn": 3622,
      "Ġqual": 3623,
      "Ġder": 3624,
      "ament": 3625,
      "raft": 3626,
      "ĠTrans": 3627,
      "Ġnews": 3628,
      "vert": 3629,
      "cles": 3630,
      "Ġborn": 3631,
      "Ġactions": 3632,
      "Ġadults": 3633,
      "Ġconstit": 3634,
      "ĠParty": 3635,
      "pper": 3636,
      "Ġplanning": 3637,
      "At": 3638,
      "lim": 3639,
      "Ġdark": 3640,
      "acters": 3641,
      "Ġvo": 3642,
      "cean": 3643,
      "Ġagricult": 3644,
      "ĠPat": 3645,
      "hemat": 3646,
      "omy": 3647,
      "Ġobjects": 3648,
      "ĠRepublic": 3649,
      "Ġtherapy": 3650,
      "ford": 3651,
      "Ġorganizations": 3652,
      "Ġhope": 3653,
      "Step": 3654,
      "sec": 3655,
      "Ġacad": 3656,
      "Ġbound": 3657,
      "Ġdat": 3658,
      "idents": 3659,
      "OR": 3660,
      "Ġalthough": 3661,
      "Ġ29": 3662,
      "Ġworkers": 3663,
      "Ġthr": 3664,
      "ama": 3665,
      "inate": 3666,
      "ests": 3667,
      "ĠHigh": 3668,
      "ibrary": 3669,
      "Ġmag": 3670,
      "abilities": 3671,
      "60": 3672,
      "ĠJes": 3673,
      "ype": 3674,
      "Ġblock": 3675,
      "Ġlearned": 3676,
      "27": 3677,
      "yd": 3678,
      "fficient": 3679,
      "ĠInter": 3680,
      "Ġfunctions": 3681,
      "orthern": 3682,
      "Ġphilos": 3683,
      "IC": 3684,
      "Ġserve": 3685,
      "Ġsequ": 3686,
      "Ġuseful": 3687,
      "Ġwhose": 3688,
      "rick": 3689,
      "Ġhon": 3690,
      "Ġprivate": 3691,
      "Ġvict": 3692,
      "ĠĠĠĠĠĠĠĠĠĠĠĠĠĠĠĠĠĠ": 3693,
      "Ġconsequ": 3694,
      "ĠDis": 3695,
      "ĠDay": 3696,
      "Ġfair": 3697,
      "Ġ195": 3698,
      "ĠEach": 3699,
      "Ġlocation": 3700,
      "ĠServ": 3701,
      "ague": 3702,
      "Ġconstruction": 3703,
      "arian": 3704,
      "Ġprotein": 3705,
      "Ġ2020": 3706,
      "ĠCenter": 3707,
      "ĠRed": 3708,
      "ĠChild": 3709,
      "Ġtechnologies": 3710,
      "itis": 3711,
      "tery": 3712,
      "ĠSystem": 3713,
      "ifornia": 3714,
      "Ġcitiz": 3715,
      "Ġlandsc": 3716,
      "Ġgradu": 3717,
      "Ġitems": 3718,
      "iny": 3719,
      "Ġprobably": 3720,
      "Ġexec": 3721,
      "Ġconcepts": 3722,
      "Ġdecisions": 3723,
      "Ġbeginning": 3724,
      "Ġbirth": 3725,
      "gn": 3726,
      "29": 3727,
      "Ġdiscovered": 3728,
      "bit": 3729,
      "Ġegg": 3730,
      "ĠGovern": 3731,
      "Ġassign": 3732,
      "Ġnavig": 3733,
      "Ġneigh": 3734,
      "Ġplayed": 3735,
      "ĠEv": 3736,
      "28": 3737,
      "ought": 3738,
      "Ġteacher": 3739,
      "Ġproperties": 3740,
      "Ġbrought": 3741,
      "Ġnarr": 3742,
      "Ġvirt": 3743,
      "Is": 3744,
      "Ġcou": 3745,
      "Ġinfect": 3746,
      "set": 3747,
      "Ġwebsite": 3748,
      "coh": 3749,
      "eper": 3750,
      "Ġfile": 3751,
      "Ġexplain": 3752,
      "Ġgot": 3753,
      "uro": 3754,
      "Ġcontinued": 3755,
      "ĠVal": 3756,
      "Ġallowing": 3757,
      "Ġforces": 3758,
      "Ġscreen": 3759,
      "ĠCor": 3760,
      "Ġaccom": 3761,
      "anish": 3762,
      "Ġweeks": 3763,
      "Ġtrade": 3764,
      "works": 3765,
      "oyal": 3766,
      "efore": 3767,
      "igr": 3768,
      "Ġdoctor": 3769,
      "Ġgraph": 3770,
      "```": 3771,
      "ython": 3772,
      "Ġchallenge": 3773,
      "Ġorganization": 3774,
      "ĠCanada": 3775,
      "ĠDuring": 3776,
      "ĠRead": 3777,
      "encies": 3778,
      "iable": 3779,
      "Ġbra": 3780,
      "EN": 3781,
      "ĠFl": 3782,
      "Ġcontemporary": 3783,
      "odes": 3784,
      "à¤": 3785,
      "Ġeffectively": 3786,
      "Ġdescribed": 3787,
      "âĢ¢": 3788,
      "rogen": 3789,
      "ĠAccording": 3790,
      "Ġconstruct": 3791,
      "Ġteach": 3792,
      "Ġcenter": 3793,
      "alt": 3794,
      "ĠRiver": 3795,
      "Ġcontroll": 3796,
      "Ġtests": 3797,
      "Ġeating": 3798,
      "icip": 3799,
      "ĠTheir": 3800,
      "ED": 3801,
      "Ġpurch": 3802,
      "ingu": 3803,
      "ĠAssoci": 3804,
      "Ġreceive": 3805,
      "Ġcam": 3806,
      "Ġcold": 3807,
      "orge": 3808,
      "ĠBr": 3809,
      "ĠĠĠĠĠĠĠĠĠĠĠĠĠĠĠĠĠĠĠ": 3810,
      "Ġdecl": 3811,
      "Ġprofession": 3812,
      "Ġprin": 3813,
      "Ġasked": 3814,
      "Ġded": 3815,
      "Ġbenefit": 3816,
      "Ġconcerns": 3817,
      "plications": 3818,
      "Ġelectr": 3819,
      "And": 3820,
      "andid": 3821,
      "Ġreasons": 3822,
      "Ġanx": 3823,
      "Ġexpand": 3824,
      "iance": 3825,
      "ĠWell": 3826,
      "ĠPresident": 3827,
      "unch": 3828,
      "eces": 3829,
      "Ġapprox": 3830,
      "Ġ]": 3831,
      "sect": 3832,
      "used": 3833,
      "With": 3834,
      "Ġaffected": 3835,
      "Ġacqu": 3836,
      "ondon": 3837,
      "Ġsaw": 3838,
      "Ġlaws": 3839,
      "ilit": 3840,
      "ĠFurther": 3841,
      "ocks": 3842,
      "Ġconnections": 3843,
      "mosp": 3844,
      "atur": 3845,
      "Ġcharacters": 3846,
      "ĠChinese": 3847,
      "Ġsmaller": 3848,
      "Ġlargest": 3849,
      "IT": 3850,
      "Ġ2008": 3851,
      "Ġcelebr": 3852,
      "rong": 3853,
      "Ġinstru": 3854,
      "aste": 3855,
      "Ġdisplay": 3856,
      "ĠEast": 3857,
      "ords": 3858,
      "key": 3859,
      "Ġfear": 3860,
      "rie": 3861,
      "bre": 3862,
      "zz": 3863,
      "These": 3864,
      "ĠCalifornia": 3865,
      "Ġfresh": 3866,
      "Ġinsights": 3867,
      "Ġidentity": 3868,
      "ĠRoman": 3869,
      "Ġgender": 3870,
      "udd": 3871,
      "off": 3872,
      "ĠMat": 3873,
      "Ġpromote": 3874,
      "Ġdetails": 3875,
      "Ġearlier": 3876,
      "Ġaccur": 3877,
      "Ġson": 3878,
      "Ġdivers": 3879,
      "Ġnuc": 3880,
      "Ġscen": 3881,
      "Ġ:": 3882,
      "known": 3883,
      "Ġfeature": 3884,
      "omas": 3885,
      "Ġdate": 3886,
      "Ġvill": 3887,
      "ĠCounty": 3888,
      "Ġfollowed": 3889,
      "Ġ...": 3890,
      "Ġconstant": 3891,
      ":**": 3892,
      "Ġice": 3893,
      "elines": 3894,
      "aught": 3895,
      "Ġcollection": 3896,
      "Ġmaxim": 3897,
      "Ġformed": 3898,
      "Ġcrop": 3899,
      "www": 3900,
      "Ġrock": 3901,
      "ĠCur": 3902,
      "Ġpiece": 3903,
      "Ġmob": 3904,
      "Ġfascinating": 3905,
      "Ġformer": 3906,
      "Ġrisks": 3907,
      "hips": 3908,
      "Ġtou": 3909,
      "Ġhosp": 3910,
      "Ġopportunity": 3911,
      "bl": 3912,
      "Ġmiddle": 3913,
      "estic": 3914,
      "Ġ#": 3915,
      "undred": 3916,
      "Ġstyle": 3917,
      "Ġdesp": 3918,
      "While": 3919,
      "Ġreduced": 3920,
      "ĠVir": 3921,
      "Ġfilm": 3922,
      "Ġten": 3923,
      "Ġalg": 3924,
      "Ġinteresting": 3925,
      "Ġpow": 3926,
      "ĠBu": 3927,
      "iat": 3928,
      "Ġexposure": 3929,
      "Ġrefers": 3930,
      "Ġanything": 3931,
      "Ġrecommend": 3932,
      "Ġlimit": 3933,
      "Ġforward": 3934,
      "oses": 3935,
      "Ġ2014": 3936,
      "Ad": 3937,
      "Ġroot": 3938,
      "aid": 3939,
      "ĠInstitute": 3940,
      "Ġsouth": 3941,
      "rial": 3942,
      "Ġeducational": 3943,
      "book": 3944,
      "Ġbeautiful": 3945,
      "Ġinvolve": 3946,
      "Ġstatus": 3947,
      "ĠChurch": 3948,
      "ees": 3949,
      "pre": 3950,
      "ĠProg": 3951,
      "Ġrain": 3952,
      "ĠRef": 3953,
      "Ġsurrounding": 3954,
      "Ġhealthcare": 3955,
      "Ġseems": 3956,
      "erences": 3957,
      "year": 3958,
      "Ġ2009": 3959,
      "Ġstandards": 3960,
      "iences": 3961,
      "Ġsigns": 3962,
      "ĠMich": 3963,
      "Ġbacteria": 3964,
      "Ġgives": 3965,
      "ĠUse": 3966,
      "Ġvital": 3967,
      "Ġbackground": 3968,
      "Ġconnection": 3969,
      "Ġmiss": 3970,
      "comes": 3971,
      "Ġswe": 3972,
      "Ġmoment": 3973,
      "airs": 3974,
      "formation": 3975,
      "Ġintellig": 3976,
      "ffect": 3977,
      "ocol": 3978,
      "Ġemotional": 3979,
      "ĠOnce": 3980,
      "ĠDon": 3981,
      "199": 3982,
      "Ġdepend": 3983,
      "Ġdead": 3984,
      "ensity": 3985,
      "Ġassist": 3986,
      "lamm": 3987,
      "hors": 3988,
      "ĠBo": 3989,
      "Ġ2018": 3990,
      "Ġfather": 3991,
      "Ġnorth": 3992,
      "ĠThen": 3993,
      "Ġsummer": 3994,
      "ager": 3995,
      "Ġpoly": 3996,
      "ternal": 3997,
      "Ġrequirements": 3998,
      "ĠAre": 3999,
      "Ġrare": 4000,
      "Ġexisting": 4001,
      "Ġmolec": 4002,
      "ĠDepartment": 4003,
      "Ġ60": 4004,
      "Ġillness": 4005,
      "ifying": 4006,
      "Ġ190": 4007,
      "Ġhyp": 4008,
      "Ġsites": 4009,
      "eech": 4010,
      "Ġcomprehens": 4011,
      "rote": 4012,
      "Ġmid": 4013,
      "Ġcoast": 4014,
      "aign": 4015,
      "que": 4016,
      "Ġcapacity": 4017,
      "Ġhous": 4018,
      "Ġcomfort": 4019,
      "ĠChapter": 4020,
      "Ġsetting": 4021,
      "Ġrelevant": 4022,
      "ĠFrance": 4023,
      "ĠUnderstanding": 4024,
      "athy": 4025,
      "Ġtrend": 4026,
      "cohol": 4027,
      "resp": 4028,
      "Ġexpected": 4029,
      "ĠâĢ¦": 4030,
      "atin": 4031,
      "Ġ2017": 4032,
      "Ġsugar": 4033,
      "ĠAustralia": 4034,
      "Ġcommand": 4035,
      "Ġelement": 4036,
      "Ġ2016": 4037,
      "Ġoccurs": 4038,
      "iding": 4039,
      "ĠJesus": 4040,
      "Ġmut": 4041,
      "Ġdistinct": 4042,
      "Ġplanet": 4043,
      "Ġillustr": 4044,
      "Ġcry": 4045,
      "Ġequal": 4046,
      "ĠEducation": 4047,
      "ĠDes": 4048,
      "ĠEven": 4049,
      "Ġolder": 4050,
      "Ġsustainable": 4051,
      "ĠAmericans": 4052,
      "ieces": 4053,
      "Ġden": 4054,
      "Ġpolicies": 4055,
      "ĠNet": 4056,
      "Ġbott": 4057,
      "Ġfuel": 4058,
      "Ġexactly": 4059,
      "ructure": 4060,
      "Ġhimself": 4061,
      "Ġbaby": 4062,
      "Ġiniti": 4063,
      "osa": 4064,
      "Ġrise": 4065,
      "rupt": 4066,
      "Ġscale": 4067,
      "Ġcommonly": 4068,
      "Ġpet": 4069,
      "place": 4070,
      "Ġapply": 4071,
      "Ġapplied": 4072,
      "ĠConf": 4073,
      "Ġhair": 4074,
      "ĠAdditionally": 4075,
      "hab": 4076,
      "ĠBlack": 4077,
      "Ġbasis": 4078,
      "lev": 4079,
      "ĠLondon": 4080,
      "Ġreducing": 4081,
      "Ġgoes": 4082,
      "Ġrace": 4083,
      "ĠHouse": 4084,
      "Ġadvanced": 4085,
      "Ġgenetic": 4086,
      "cast": 4087,
      "Ġplays": 4088,
      "ĠGra": 4089,
      "Ġeffort": 4090,
      "Ġenter": 4091,
      "ĠCong": 4092,
      "Ġnutri": 4093,
      "Ġschol": 4094,
      "Ġalternative": 4095,
      "son": 4096,
      "ĊĠ": 4097,
      "Ġadvance": 4098,
      "Ġeconomy": 4099,
      "ĠPeople": 4100,
      "ias": 4101,
      "Ġheard": 4102,
      "35": 4103,
      "ĠInf": 4104,
      "Ġrunning": 4105,
      "Ġconsumption": 4106,
      "ogen": 4107,
      "Ġstrength": 4108,
      "Ġbeg": 4109,
      "Ġdecided": 4110,
      "Ġteeth": 4111,
      "Ġwatch": 4112,
      "raw": 4113,
      "Why": 4114,
      "Ġgir": 4115,
      "urt": 4116,
      "Ġleave": 4117,
      "Ġdied": 4118,
      "ĠMex": 4119,
      "45": 4120,
      "Ġsociet": 4121,
      "otal": 4122,
      "Ġbox": 4123,
      "\",": 4124,
      "ros": 4125,
      "Ġcareer": 4126,
      "orage": 4127,
      "ĠUnion": 4128,
      "ĠLaw": 4129,
      "Ġinput": 4130,
      "see": 4131,
      "ĠRet": 4132,
      "Ġresource": 4133,
      "Ġdim": 4134,
      "Ġallowed": 4135,
      "Ġimag": 4136,
      "Ġinitial": 4137,
      "Ġ2015": 4138,
      "Ġtoward": 4139,
      "Ġrule": 4140,
      "Ġcompar": 4141,
      "ero": 4142,
      "ĠSch": 4143,
      "omb": 4144,
      "ĠĠĠĠĠĠĠĠĠĠĠĠĠĠĠĠĠĠĠĠĠĠĠĠĠĠĠĠĠĠĠĠĠĠĠĠĠĠĠĠĠĠĠĠĠĠĠĠĠĠĠĠĠĠĠĠĠĠĠĠĠĠĠĠĠĠĠĠĠĠĠĠĠĠĠĠĠĠĠĠĠĠĠĠĠĠĠĠĠĠĠĠĠĠĠĠĠĠĠĠĠĠĠĠĠĠĠĠĠĠĠĠĠĠĠĠĠĠĠĠĠĠĠĠĠĠĠĠĠĠĠĠĠĠĠĠĠĠĠĠĠĠĠĠĠĠĠĠĠĠĠĠĠĠĠĠĠĠĠĠĠĠĠĠĠĠĠĠĠĠĠĠĠĠĠĠĠĠĠĠĠĠĠĠĠĠĠĠĠĠĠĠĠĠĠĠĠĠĠĠĠĠĠĠĠĠĠĠĠĠĠĠĠĠĠĠĠĠĠĠĠĠĠĠĠĠĠĠĠĠĠĠĠĠĠĠĠĠĠĠĠĠĠĠĠĠĠĠĠĠĠĠĠĠĠĠĠĠĠĠĠĠĠĠĠĠĠĠĠĠĠĠĠĠĠĠĠĠĠĠĠĠĠĠĠĠĠĠĠĠĠĠĠĠĠĠĠĠĠĠĠĠĠĠĠĠĠĠĠĠĠĠĠĠĠĠĠĠĠĠĠĠĠĠĠĠĠĠĠĠĠĠĠĠĠĠĠĠĠĠĠĠĠĠĠĠĠĠĠĠĠĠĠĠĠĠĠĠĠĠĠĠĠĠĠĠĠĠĠĠĠĠĠĠĠĠĠĠĠĠĠĠĠĠĠĠĠĠĠĠĠĠĠĠĠĠĠĠĠĠĠĠĠĠĠĠĠĠĠĠĠĠĠĠĠĠĠĠĠĠĠĠĠĠĠĠĠĠĠĠĠĠĠĠĠĠĠĠĠĠĠĠĠĠĠĠĠĠĠĠĠĠĠĠĠĠĠĠĠĠĠĠĠĠĠĠĠĠĠĠĠĠĠĠĠĠĠĠĠĠĠĠĠĠĠĠĠĠĠĠĠĠĠĠĠĠĠĠĠĠĠĠĠĠĠĠĠĠĠĠĠĠ": 4145,
      "Ġpeace": 4146,
      "Ġspecifically": 4147,
      "Ġdetect": 4148,
      "igenous": 4149,
      "Ġdeeper": 4150,
      "Ġcompletely": 4151,
      "Ġcharacteristics": 4152,
      "ares": 4153,
      "Ġtopics": 4154,
      "ample": 4155,
      "hest": 4156,
      "ĠAut": 4157,
      "Ġchoice": 4158,
      "espite": 4159,
      "Ġtask": 4160,
      "70": 4161,
      "ĠMor": 4162,
      "Ġatmosp": 4163,
      "ste": 4164,
      "ĠToday": 4165,
      "Ġcontract": 4166,
      "going": 4167,
      "Ġdegree": 4168,
      "Ġcore": 4169,
      "'ve": 4170,
      "Ġtopic": 4171,
      "Ġfederal": 4172,
      "Ġupd": 4173,
      "Ġexch": 4174,
      "Ġoperations": 4175,
      "Ġanti": 4176,
      "Ġabsor": 4177,
      "Ġoccup": 4178,
      "iology": 4179,
      "Ġgarden": 4180,
      "iveness": 4181,
      "Ġdidn": 4182,
      "Ġnames": 4183,
      "ĠJames": 4184,
      "Ġalone": 4185,
      "Ġplaying": 4186,
      "Ġversion": 4187,
      "force": 4188,
      "Ġbodies": 4189,
      "Ġpregn": 4190,
      "Ġmonit": 4191,
      "ald": 4192,
      "Ġdistance": 4193,
      "Ġbond": 4194,
      "Ġawareness": 4195,
      "Ġadjust": 4196,
      "Ġhundred": 4197,
      "Ġpen": 4198,
      "Ġresistance": 4199,
      "cious": 4200,
      "ĠDist": 4201,
      "Ġbul": 4202,
      "ibly": 4203,
      "Ġdiabetes": 4204,
      "Ġ2019": 4205,
      "âĢĿ.": 4206,
      "Ġking": 4207,
      "Ġmanage": 4208,
      "Ġinstruct": 4209,
      "Ġenhance": 4210,
      "Ġbusinesses": 4211,
      "gypt": 4212,
      "Ġurban": 4213,
      "Ġlessons": 4214,
      "Ġtold": 4215,
      "Ġexhib": 4216,
      "Ġhelping": 4217,
      "Ġfindings": 4218,
      "ĠÐ": 4219,
      "Ġfactor": 4220,
      "ĠPhil": 4221,
      "Ġcurrently": 4222,
      "era": 4223,
      "ĠSur": 4224,
      "mitted": 4225,
      "Ġevol": 4226,
      "irection": 4227,
      "anging": 4228,
      "Ġensuring": 4229,
      "ashington": 4230,
      "Ġshall": 4231,
      "Ġlayer": 4232,
      "ij": 4233,
      "Ġvary": 4234,
      "Ġrat": 4235,
      "Ġnearly": 4236,
      "zing": 4237,
      "US": 4238,
      "Ġglass": 4239,
      "Ġfeeling": 4240,
      "born": 4241,
      "rief": 4242,
      "Ġoutcomes": 4243,
      "Ġconclusion": 4244,
      "Ġwinter": 4245,
      "can": 4246,
      "met": 4247,
      "being": 4248,
      "orith": 4249,
      "Ġphen": 4250,
      "Ġfully": 4251,
      "rael": 4252,
      "elcome": 4253,
      "ession": 4254,
      "33": 4255,
      "Ġimmune": 4256,
      "Ġlived": 4257,
      "Ġattract": 4258,
      "leg": 4259,
      "ĠWestern": 4260,
      "Ġplans": 4261,
      "Ġfamous": 4262,
      "Ġprocessing": 4263,
      "Ġtrack": 4264,
      "Ġworked": 4265,
      "tical": 4266,
      "Ġbecoming": 4267,
      "Ġtransfer": 4268,
      "roup": 4269,
      "Ġwoman": 4270,
      "semb": 4271,
      "Ġcoming": 4272,
      "Ġfruit": 4273,
      "Ġrecently": 4274,
      "Ġfeelings": 4275,
      "Ġtasks": 4276,
      "craft": 4277,
      "Ġiron": 4278,
      "ĠPress": 4279,
      "Ġcommerc": 4280,
      "Ġreality": 4281,
      "Ġsituations": 4282,
      "Ġidentified": 4283,
      "Ġmoving": 4284,
      "Ġworth": 4285,
      "Ġsong": 4286,
      "aled": 4287,
      "Ġprepar": 4288,
      "Ġpresence": 4289,
      "rab": 4290,
      "Ġsharing": 4291,
      "VID": 4292,
      "Ġwid": 4293,
      "Ġincl": 4294,
      "ching": 4295,
      "rees": 4296,
      "ĠSpec": 4297,
      "Ġgiving": 4298,
      "Let": 4299,
      "Ġdivid": 4300,
      "Ġregions": 4301,
      "Ġresulting": 4302,
      "Ġload": 4303,
      "Ġtrib": 4304,
      "uff": 4305,
      "iant": 4306,
      "edom": 4307,
      "Ġrot": 4308,
      "ĠPal": 4309,
      "Ġmetal": 4310,
      "Ġsolid": 4311,
      "Ġexcess": 4312,
      "mat": 4313,
      "ĠRel": 4314,
      "Ġcitizens": 4315,
      "Ġdeal": 4316,
      "Ġdistribution": 4317,
      "urance": 4318,
      "Ġround": 4319,
      "Ġstore": 4320,
      "osystem": 4321,
      "ĠWrit": 4322,
      "ĠProf": 4323,
      "AL": 4324,
      "ĠWater": 4325,
      "Ġprice": 4326,
      "Ġfemale": 4327,
      "ÃŃ": 4328,
      "Ġexpert": 4329,
      "ĠAlex": 4330,
      "ris": 4331,
      "Ġfix": 4332,
      "omic": 4333,
      "ognitive": 4334,
      "ocratic": 4335,
      "ĠJournal": 4336,
      "Ġstarting": 4337,
      "ĠGermany": 4338,
      "ĠSan": 4339,
      "Ġeasier": 4340,
      "Ġauthors": 4341,
      "Ġcausing": 4342,
      "aint": 4343,
      "ophy": 4344,
      "Ġforeign": 4345,
      "Ġconnected": 4346,
      "Pro": 4347,
      "ĠDef": 4348,
      "Ġtechnique": 4349,
      "Ġsave": 4350,
      "Ġcultures": 4351,
      "Ġfigure": 4352,
      "ĠAI": 4353,
      "Ġspect": 4354,
      "Ġfinding": 4355,
      "Ġplaced": 4356,
      "Ġwanted": 4357,
      "Ġpicture": 4358,
      "inn": 4359,
      "Ġcities": 4360,
      "Ġmaintaining": 4361,
      "Ġsuppl": 4362,
      "**:": 4363,
      "Ġmiles": 4364,
      "Ġsexual": 4365,
      "Ġchurch": 4366,
      "Ġreaders": 4367,
      "Ġprefer": 4368,
      "ĠProt": 4369,
      "ĠĠĠĠĠĠĠĠĠĠĠĠĠĠĠĠĠĠĠĠĠĠ": 4370,
      "related": 4371,
      "ĠJapanese": 4372,
      "Ġblue": 4373,
      "unction": 4374,
      "ĠGeneral": 4375,
      "men": 4376,
      "EC": 4377,
      "Ġthoughts": 4378,
      "Ġweak": 4379,
      "Ġhappens": 4380,
      "Ġbuy": 4381,
      "ĠSol": 4382,
      "PA": 4383,
      "Ġmouth": 4384,
      "Ġmaster": 4385,
      "Ġheavy": 4386,
      "ĠPort": 4387,
      "ĠIts": 4388,
      "ĠAng": 4389,
      "Ġ------------": 4390,
      "ĠLa": 4391,
      "ĠAtt": 4392,
      "Ġbirds": 4393,
      "Ġevolution": 4394,
      "Ġinterpret": 4395,
      "Ġchanging": 4396,
      "Ġnothing": 4397,
      "Ġ189": 4398,
      "apers": 4399,
      "Ġ-----": 4400,
      "Ġchanged": 4401,
      "Ġtim": 4402,
      "ygen": 4403,
      "Ġdefined": 4404,
      "Ġapproaches": 4405,
      "Ġperhaps": 4406,
      "ĠAlso": 4407,
      "Ġdespite": 4408,
      "Ġexpression": 4409,
      "Ġnote": 4410,
      "enty": 4411,
      "emy": 4412,
      "ogle": 4413,
      "Ġfaith": 4414,
      "Ġstaff": 4415,
      "Ġpartners": 4416,
      "Ġacademic": 4417,
      "ĠMark": 4418,
      "Ġmal": 4419,
      "co": 4420,
      "Ġ2007": 4421,
      "Ġfrequently": 4422,
      "Ġincome": 4423,
      "bal": 4424,
      "ĠÃ": 4425,
      "Ġreleased": 4426,
      "Ġmathemat": 4427,
      "ĠCoun": 4428,
      "ĠBra": 4429,
      "Ġassum": 4430,
      "ĠGeorge": 4431,
      "Un": 4432,
      "Ġindustrial": 4433,
      "Ġfilled": 4434,
      "ams": 4435,
      "roy": 4436,
      "Ġready": 4437,
      "Ġpieces": 4438,
      "ĠExpl": 4439,
      "Ġelectricity": 4440,
      "Ġfields": 4441,
      "ĠDec": 4442,
      "ĠEnvironment": 4443,
      "Ġdepending": 4444,
      "Ġcontrast": 4445,
      "Ġinfluen": 4446,
      "Ġ2000": 4447,
      "Ġimagine": 4448,
      "Ġengage": 4449,
      "Some": 4450,
      "Ġefficiency": 4451,
      "After": 4452,
      "Ġunf": 4453,
      "ulating": 4454,
      "iest": 4455,
      "ĠDiv": 4456,
      "pan": 4457,
      "pen": 4458,
      "75": 4459,
      "Ġchallenging": 4460,
      "ĠMary": 4461,
      "However": 4462,
      "rome": 4463,
      "Ġpassed": 4464,
      "ĠWashington": 4465,
      "Ġeventually": 4466,
      "house": 4467,
      "ĠGreen": 4468,
      "ĠUK": 4469,
      "Ġvision": 4470,
      "ĠAv": 4471,
      "ĠEgypt": 4472,
      "Ġsurpr": 4473,
      "Ġeight": 4474,
      "ĠSince": 4475,
      "inding": 4476,
      "antic": 4477,
      "78": 4478,
      "usive": 4479,
      "Ġadvent": 4480,
      "Ġnutrition": 4481,
      "ĠRev": 4482,
      "ĠIsrael": 4483,
      "oser": 4484,
      "Ġemail": 4485,
      "Ġincreases": 4486,
      "Ġwrong": 4487,
      "Ġclinical": 4488,
      "ician": 4489,
      "ĠSer": 4490,
      "amental": 4491,
      "Ġalcohol": 4492,
      "Ġserved": 4493,
      "Ġbelong": 4494,
      "ĠSocial": 4495,
      "Ġcourt": 4496,
      "Ġingred": 4497,
      "Ġthousands": 4498,
      "Ġanxiety": 4499,
      "Ġbelieved": 4500,
      "ocal": 4501,
      "Ġparam": 4502,
      "Ġboard": 4503,
      "Ġapproximately": 4504,
      "Ġcollege": 4505,
      "Sh": 4506,
      "aters": 4507,
      "Ġrepe": 4508,
      "ĠRober": 4509,
      "Ġalgorith": 4510,
      "36": 4511,
      "resents": 4512,
      "rete": 4513,
      "raction": 4514,
      "Ġtox": 4515,
      "Ġemissions": 4516,
      "ĠIS": 4517,
      "ĠBat": 4518,
      "Ġexcell": 4519,
      "Ġemotions": 4520,
      "Ġwrote": 4521,
      "Ġmo": 4522,
      "ĠBen": 4523,
      "ĠTherefore": 4524,
      ");": 4525,
      "Ġobserved": 4526,
      "Ġmajority": 4527,
      "Ġstream": 4528,
      "edia": 4529,
      "igure": 4530,
      "Ġvul": 4531,
      "Ġfol": 4532,
      "Ġhappen": 4533,
      "Ġrelease": 4534,
      "Ġmentioned": 4535,
      "road": 4536,
      "bed": 4537,
      "ishing": 4538,
      "ĠBel": 4539,
      "Ġparty": 4540,
      "ĠAssociation": 4541,
      "ographic": 4542,
      "Ġimproved": 4543,
      "ses": 4544,
      "Ġpresented": 4545,
      "Ġcounter": 4546,
      "itage": 4547,
      "Ġnative": 4548,
      "Ġliqu": 4549,
      "rows": 4550,
      "Ġengaging": 4551,
      "Ġlanguages": 4552,
      "ĠCollege": 4553,
      "opp": 4554,
      "EM": 4555,
      "Ġcreative": 4556,
      "ĠRich": 4557,
      "Int": 4558,
      "Ġmedicine": 4559,
      "Ġexperienced": 4560,
      "Ġgets": 4561,
      "Ġencourage": 4562,
      "ken": 4563,
      "Ġcampaign": 4564,
      "Ġ\\|": 4565,
      "arter": 4566,
      "poses": 4567,
      "vironments": 4568,
      "onic": 4569,
      "Ġoffice": 4570,
      "Ġtour": 4571,
      "Ġcircum": 4572,
      "hetic": 4573,
      "och": 4574,
      "AM": 4575,
      "Ġfacilit": 4576,
      "asion": 4577,
      "eters": 4578,
      "ĠPaul": 4579,
      "Ġdial": 4580,
      "ĠPublic": 4581,
      "CO": 4582,
      "Ġstim": 4583,
      "Ġdiversity": 4584,
      "nes": 4585,
      "oma": 4586,
      "Ġdrugs": 4587,
      "Ġmap": 4588,
      "Ġmuscle": 4589,
      "Ġdirection": 4590,
      "orial": 4591,
      "ĠArch": 4592,
      "Ġ--------------------------------": 4593,
      "Ġrepresents": 4594,
      "ET": 4595,
      "vious": 4596,
      "ĠĠĠĠĠĠĠĠĠĠĠĠĠĠĠĠĠĠĠĠĠ": 4597,
      "Ġopin": 4598,
      "Ġstorage": 4599,
      "ube": 4600,
      "Ġshowed": 4601,
      "Ġfert": 4602,
      "Ġdisorders": 4603,
      "Here": 4604,
      "Ġspeech": 4605,
      "ya": 4606,
      "Ġ31": 4607,
      "Ġmission": 4608,
      "ĠFurthermore": 4609,
      "Ġdive": 4610,
      "gery": 4611,
      "Ġchance": 4612,
      "Ġ35": 4613,
      "Ġcreation": 4614,
      "pped": 4615,
      "icated": 4616,
      "ĠDNA": 4617,
      "char": 4618,
      "ressive": 4619,
      "alle": 4620,
      "Ġexperiment": 4621,
      "Ġincreasingly": 4622,
      "Ġonto": 4623,
      "ĠCOVID": 4624,
      "Ġpages": 4625,
      "Ġagg": 4626,
      "ĠDevelopment": 4627,
      "Ġpopulations": 4628,
      "Ġseparate": 4629,
      "ĠDavid": 4630,
      "Ġassessment": 4631,
      "ey": 4632,
      "ett": 4633,
      "respond": 4634,
      "Ġexperim": 4635,
      "Ġhttp": 4636,
      "ux": 4637,
      "Ġcolors": 4638,
      "Ġhol": 4639,
      "Ġtransl": 4640,
      "Ġjournal": 4641,
      "Ġplastic": 4642,
      "ded": 4643,
      "uit": 4644,
      "Ġmilk": 4645,
      "Ġsounds": 4646,
      "Ġclassroom": 4647,
      "Ġfocused": 4648,
      "ĠMoreover": 4649,
      "ĠSub": 4650,
      "Ġanyone": 4651,
      "ightly": 4652,
      "do": 4653,
      "Ġhelped": 4654,
      "Ġgeneration": 4655,
      "icial": 4656,
      "ĠMal": 4657,
      "Ġriver": 4658,
      "ĠThus": 4659,
      "Ġhom": 4660,
      "Ġlesson": 4661,
      "Ġtemperatures": 4662,
      "ĠBecause": 4663,
      "Ġflex": 4664,
      "39": 4665,
      "ulum": 4666,
      "Ġnotes": 4667,
      "Ġnetworks": 4668,
      "Ġpresident": 4669,
      "Ġecosystem": 4670,
      "Ar": 4671,
      "Ġwalk": 4672,
      "Ġremov": 4673,
      "Ġinternal": 4674,
      "othes": 4675,
      "Ġreference": 4676,
      "48": 4677,
      "ibilities": 4678,
      "Ġsac": 4679,
      "Ġmoved": 4680,
      "Ġoption": 4681,
      "board": 4682,
      "za": 4683,
      "Ġactual": 4684,
      "Ġmath": 4685,
      "ander": 4686,
      "Ġenvironments": 4687,
      "iced": 4688,
      "Ġbuildings": 4689,
      "Ġfelt": 4690,
      "Ġpractical": 4691,
      "Ġcycle": 4692,
      "Ġmale": 4693,
      "Ġpoet": 4694,
      "Ġsuggests": 4695,
      "ĠHol": 4696,
      "Ġworldwide": 4697,
      "ĠOff": 4698,
      "Ġremove": 4699,
      "Ġleads": 4700,
      "ĠOrgan": 4701,
      "Ġstrategy": 4702,
      "Ġgave": 4703,
      "Ġtrig": 4704,
      "Ġwidely": 4705,
      "ulf": 4706,
      "Ġresil": 4707,
      "ĠSam": 4708,
      "ael": 4709,
      "Ġ2006": 4710,
      "Ġcontinues": 4711,
      "Ġ186": 4712,
      "Ġantib": 4713,
      "Ġsem": 4714,
      "ST": 4715,
      "Ġsignificance": 4716,
      "Ġbreast": 4717,
      "Ġmotiv": 4718,
      "Ġcommercial": 4719,
      "Ġdri": 4720,
      "Ġexperts": 4721,
      "All": 4722,
      "col": 4723,
      "Ġtruth": 4724,
      "Ġap": 4725,
      "Ġmel": 4726,
      "Ġkeeping": 4727,
      "Ġexcept": 4728,
      "uting": 4729,
      "Ġbud": 4730,
      "Ġadvoc": 4731,
      "Ġsample": 4732,
      "Ġpric": 4733,
      "Ġsynt": 4734,
      "Ġoutput": 4735,
      "ĠPlan": 4736,
      "Ġ---": 4737,
      "uration": 4738,
      "mp": 4739,
      "rum": 4740,
      "Ġesc": 4741,
      "Ġprimarily": 4742,
      "amil": 4743,
      "ĠHen": 4744,
      "Imagine": 4745,
      "Ġprofessionals": 4746,
      "ĠSen": 4747,
      "Ġrelatively": 4748,
      "Ġdisorder": 4749,
      "Ġsand": 4750,
      "bert": 4751,
      "Ġcombination": 4752,
      "Ġperformed": 4753,
      "Ġelim": 4754,
      "Ġreligion": 4755,
      "ĠTur": 4756,
      "Ġimpacts": 4757,
      "Ġappears": 4758,
      "Ġoxygen": 4759,
      "ĠClass": 4760,
      "li": 4761,
      "isation": 4762,
      "cont": 4763,
      "Ġwonder": 4764,
      "Ġpref": 4765,
      "iling": 4766,
      "Ġhousehold": 4767,
      "Ġtissue": 4768,
      "Ġhuge": 4769,
      "Ġunc": 4770,
      "ĠIsl": 4771,
      "Ã³": 4772,
      "Ġstar": 4773,
      "Ġframew": 4774,
      "ĠTest": 4775,
      "Ġconflict": 4776,
      "ĊĠĠĠ": 4777,
      "ĠQue": 4778,
      "Ġconsequences": 4779,
      "Ġbed": 4780,
      "Ġaid": 4781,
      "Ġkn": 4782,
      "azing": 4783,
      "ĠHel": 4784,
      "Ġhighlight": 4785,
      "Ġ80": 4786,
      "Ġdiscussion": 4787,
      "rest": 4788,
      "ĠGreek": 4789,
      "wood": 4790,
      "ĠDisc": 4791,
      "ĠSociety": 4792,
      "Ġturned": 4793,
      "Ġrecords": 4794,
      "Ġviolence": 4795,
      "order": 4796,
      "Ġintroduced": 4797,
      "Ġchronic": 4798,
      "mark": 4799,
      "ĠThomas": 4800,
      "Ġunivers": 4801,
      "ida": 4802,
      "Ġconcentr": 4803,
      "Ġappe": 4804,
      "Ġinterests": 4805,
      "Ġreports": 4806,
      "Ġformation": 4807,
      "Ġorganic": 4808,
      "Ġhomes": 4809,
      "ĠWhy": 4810,
      "ĠData": 4811,
      "itz": 4812,
      "ĠGr": 4813,
      "Ġconducted": 4814,
      "Ġtail": 4815,
      "rich": 4816,
      "They": 4817,
      "Ġminor": 4818,
      "Ġbeliefs": 4819,
      "Ġengineering": 4820,
      "Ġhighest": 4821,
      "Ġembra": 4822,
      "49": 4823,
      "Ġ2021": 4824,
      "Ġprepared": 4825,
      "Ġsav": 4826,
      "Ġterrit": 4827,
      "osen": 4828,
      "Ġjustice": 4829,
      "Ġlegis": 4830,
      "Ġseek": 4831,
      "Ġcultiv": 4832,
      "Ġreplace": 4833,
      "Ġbone": 4834,
      "Ġ90": 4835,
      "Ġinstitutions": 4836,
      "rence": 4837,
      "Ġcompl": 4838,
      "Ġunits": 4839,
      "ologists": 4840,
      "ĠOb": 4841,
      "Ġpul": 4842,
      "ĠSom": 4843,
      "oper": 4844,
      "Ġstudying": 4845,
      "Ġadding": 4846,
      "Ġcarried": 4847,
      "Ġrein": 4848,
      "Ġseven": 4849,
      "Ġdram": 4850,
      "Ġexamine": 4851,
      "ĠSecond": 4852,
      "ĠMart": 4853,
      "Ph": 4854,
      "ĠLab": 4855,
      "ĠSpanish": 4856,
      "Another": 4857,
      "cking": 4858,
      "ĠâĢ¢": 4859,
      "umn": 4860,
      "Ġthick": 4861,
      "ĠVol": 4862,
      "Ġvulner": 4863,
      "38": 4864,
      "ĠAir": 4865,
      "Ġdepression": 4866,
      "Ġindependent": 4867,
      "Ġphenomen": 4868,
      "Ġspot": 4869,
      "ago": 4870,
      "Ġartists": 4871,
      "mary": 4872,
      "Ġimmediately": 4873,
      "Ġvast": 4874,
      "Ġmessage": 4875,
      "Ġmeeting": 4876,
      "ault": 4877,
      "Ġspring": 4878,
      "ĠSk": 4879,
      "oke": 4880,
      "ĪĴ": 4881,
      "Ġgrade": 4882,
      "AD": 4883,
      "Ġinflamm": 4884,
      "Ġgenerations": 4885,
      "rastructure": 4886,
      "Ġinvent": 4887,
      "Ġrecommended": 4888,
      "Ġalt": 4889,
      "Ġseeds": 4890,
      "roph": 4891,
      "alian": 4892,
      "ypes": 4893,
      "Ġdrive": 4894,
      "ĠInstead": 4895,
      "ĠLou": 4896,
      "ĠSte": 4897,
      "Ġformat": 4898,
      "Ġparticipants": 4899,
      "ĠJewish": 4900,
      "Ġdream": 4901,
      "Ġstation": 4902,
      "Ġfine": 4903,
      "Ġdisp": 4904,
      "Ġcorrespond": 4905,
      "Ġbillion": 4906,
      "ĠLife": 4907,
      "AP": 4908,
      "Ġprint": 4909,
      "Ġfavorite": 4910,
      "Ġmist": 4911,
      "ĠStudents": 4912,
      "Cl": 4913,
      "Ġpick": 4914,
      "Ġinsect": 4915,
      "amics": 4916,
      "idden": 4917,
      "akers": 4918,
      "ĠSupp": 4919,
      "ĠUnit": 4920,
      "Ġvegetables": 4921,
      "ĠUsing": 4922,
      "Ġreferred": 4923,
      "berg": 4924,
      "ĠJe": 4925,
      "Ġ2005": 4926,
      "eline": 4927,
      "Ġpromoting": 4928,
      "Ġletter": 4929,
      "ĠSun": 4930,
      "igration": 4931,
      "Ġcoord": 4932,
      "Ġresponsibility": 4933,
      "Ġconver": 4934,
      "Ġkid": 4935,
      "Ġroles": 4936,
      "tee": 4937,
      "Ġmi": 4938,
      "bra": 4939,
      "Ġ70": 4940,
      "ipe": 4941,
      "Ġreb": 4942,
      "Ġexternal": 4943,
      "Ġclasses": 4944,
      "Ġcast": 4945,
      "lick": 4946,
      "ĠCongress": 4947,
      "Ġdiss": 4948,
      "Ġstatement": 4949,
      "iated": 4950,
      "Ġcovered": 4951,
      "Ġcomponent": 4952,
      "Ġextremely": 4953,
      "ville": 4954,
      "rog": 4955,
      "ĠRoyal": 4956,
      "asp": 4957,
      "Ġextract": 4958,
      "ĠSal": 4959,
      "Ġsmart": 4960,
      "astern": 4961,
      "enth": 4962,
      "ĠWeb": 4963,
      "nic": 4964,
      "Ġproperly": 4965,
      "Ġcook": 4966,
      "Ġintelligence": 4967,
      "Ġheight": 4968,
      "37": 4969,
      "eding": 4970,
      "Ġlandscape": 4971,
      "Ġpros": 4972,
      "Ġves": 4973,
      "Ġcognitive": 4974,
      "fl": 4975,
      "34": 4976,
      "down": 4977,
      "Ġpollution": 4978,
      "Ġdatab": 4979,
      "ĠSy": 4980,
      "ĠDi": 4981,
      "Ġtraditions": 4982,
      "ĠOut": 4983,
      "Ġtreated": 4984,
      "Ġgather": 4985,
      "ĠLeg": 4986,
      "Ġvolume": 4987,
      "Ġowners": 4988,
      "oul": 4989,
      "ari": 4990,
      "Ġongoing": 4991,
      "ologist": 4992,
      "Ġdecades": 4993,
      "ampions": 4994,
      "Ġfailure": 4995,
      "Ġhttps": 4996,
      "ĠUp": 4997,
      "Ġperspective": 4998,
      "Ġsurvey": 4999,
      "Ġfundamental": 5000,
      "Ġisol": 5001,
      "Ġconsult": 5002,
      "well": 5003,
      "Ġoperation": 5004,
      "Ġphase": 5005,
      "Ġorigin": 5006,
      "ĠBoth": 5007,
      "ĠHuman": 5008,
      "ĠProgram": 5009,
      "Ġincred": 5010,
      "ĠCult": 5011,
      "Ġpurposes": 5012,
      "ĠBas": 5013,
      "ĠTeam": 5014,
      "Ġtitle": 5015,
      "Ġaren": 5016,
      "atically": 5017,
      "ĠMil": 5018,
      "Ġsports": 5019,
      "ificial": 5020,
      "Ġmonitoring": 5021,
      "pass": 5022,
      "otic": 5023,
      "ĠEvery": 5024,
      "ĠFound": 5025,
      "Ġattrib": 5026,
      "ĠCare": 5027,
      "ria": 5028,
      "Ġpreviously": 5029,
      "Ġconvent": 5030,
      "Ġju": 5031,
      "Ġflood": 5032,
      "ki": 5033,
      "othing": 5034,
      "ĠId": 5035,
      "Ġseeking": 5036,
      "ogue": 5037,
      "Ġroll": 5038,
      "Ġign": 5039,
      "Ġdogs": 5040,
      "Ġconv": 5041,
      "ny": 5042,
      "Sp": 5043,
      "Ġsyn": 5044,
      "ears": 5045,
      "Ġfreedom": 5046,
      "Ġchoices": 5047,
      "enses": 5048,
      "ĠFood": 5049,
      "Ġsecure": 5050,
      "Ġrul": 5051,
      "eria": 5052,
      "Ġsecret": 5053,
      "ĠMet": 5054,
      "Ġburn": 5055,
      "Ġconservation": 5056,
      "Ġtrou": 5057,
      "riculum": 5058,
      "Ġcredit": 5059,
      "Ġinvestment": 5060,
      "aughter": 5061,
      "Ġmanufacture": 5062,
      "Ġspiritual": 5063,
      "Ġsquare": 5064,
      "ĠTime": 5065,
      "Ġmovements": 5066,
      "Ġgoods": 5067,
      "aur": 5068,
      "anted": 5069,
      "Ġofficial": 5070,
      "Ġtips": 5071,
      "ensions": 5072,
      "ĠReport": 5073,
      "Ġdefinition": 5074,
      "RE": 5075,
      "Ġtooth": 5076,
      "Ġguidelines": 5077,
      "Ġmeant": 5078,
      "Ġcenturies": 5079,
      "ĠInternet": 5080,
      "ĠElect": 5081,
      "Ġgene": 5082,
      "Ġsatis": 5083,
      "opy": 5084,
      "Ġcarefully": 5085,
      "Ġrenew": 5086,
      "Ġelection": 5087,
      "Ġexcellent": 5088,
      "Ġadvantage": 5089,
      "Ġinjury": 5090,
      "icy": 5091,
      "ĠĠĠĠĠĠĠĠĠĠĠĠĠĠĠĠĠĠĠĠĠĠĠ": 5092,
      "44": 5093,
      "Ġhear": 5094,
      "ipped": 5095,
      "ĠMount": 5096,
      "ĠCath": 5097,
      "Ġarticles": 5098,
      "Ġaccurate": 5099,
      "?\"": 5100,
      "Ġteams": 5101,
      "Ġdescribe": 5102,
      "55": 5103,
      "inations": 5104,
      "Ġtex": 5105,
      "90": 5106,
      "Ġinfections": 5107,
      "ĠCouncil": 5108,
      "Ġtreatments": 5109,
      "Ġpossess": 5110,
      "ĠManagement": 5111,
      "Ġimproving": 5112,
      "ĠIsland": 5113,
      "ĠAcad": 5114,
      "Ġstraight": 5115,
      "ĠFranc": 5116,
      "Ġbottom": 5117,
      "rapy": 5118,
      "stitution": 5119,
      "pected": 5120,
      "Ġcandid": 5121,
      "PS": 5122,
      "ags": 5123,
      "ortunately": 5124,
      "olf": 5125,
      "Ġvalid": 5126,
      "Ġpotentially": 5127,
      "ĠUN": 5128,
      "Ġdental": 5129,
      "ĠĠĠĠĠĠĠĠĠĠĠĠĠĠĠĠĠĠĠĠĠĠĠĠ": 5130,
      "Ġfamiliar": 5131,
      "ĠSl": 5132,
      "ĠPhys": 5133,
      "Ġclearly": 5134,
      "abric": 5135,
      "Ġchann": 5136,
      "Ġlinked": 5137,
      "Ġpu": 5138,
      "Ġdrop": 5139,
      "Ġthemes": 5140,
      "ĠProject": 5141,
      "ĠArmy": 5142,
      "Ġvitamin": 5143,
      "alysis": 5144,
      "Ġenable": 5145,
      "Ġoral": 5146,
      "ilding": 5147,
      "Ġvoice": 5148,
      "tion": 5149,
      "mal": 5150,
      "ston": 5151,
      "field": 5152,
      "ĠNor": 5153,
      "Ġroots": 5154,
      "Ġflowers": 5155,
      "Ġelectrical": 5156,
      "Ġrevolution": 5157,
      "Ġeggs": 5158,
      "ĠPract": 5159,
      "making": 5160,
      "Ġcopy": 5161,
      "ĠFore": 5162,
      "Ġourselves": 5163,
      "Ġclosely": 5164,
      "ĠMr": 5165,
      "Ġnotice": 5166,
      "aker": 5167,
      "Ġwealth": 5168,
      "Ġfaced": 5169,
      "ĠExam": 5170,
      "Ġpreserv": 5171,
      "ĠBi": 5172,
      "According": 5173,
      "lease": 5174,
      "Ġdetermined": 5175,
      "ĠĠĠĠĠĠĠĠĠĠĠĠĠĠĠĠĠĠĠĠĠĠĠĠĠ": 5176,
      "irus": 5177,
      "ado": 5178,
      "Ġsuitable": 5179,
      "Ġsets": 5180,
      "Ġleadership": 5181,
      "erate": 5182,
      "ĠOld": 5183,
      "ĠMedic": 5184,
      "Ġcapable": 5185,
      "ĠLatin": 5186,
      "Ġmeat": 5187,
      "ingly": 5188,
      "Ġsaying": 5189,
      "ĠDel": 5190,
      "Ġleaving": 5191,
      "âĢĿ,": 5192,
      "Ġhappened": 5193,
      "inent": 5194,
      "rier": 5195,
      "ĠAsia": 5196,
      "Ġreduction": 5197,
      "Ġinfrastructure": 5198,
      "ĠCentral": 5199,
      "ushing": 5200,
      "Ġcollaboration": 5201,
      "ĠMexico": 5202,
      "ĠSimilar": 5203,
      "ĠCourt": 5204,
      "Ġoperating": 5205,
      "Ġyouth": 5206,
      "Ġinterested": 5207,
      "Ġspent": 5208,
      "Ġfigures": 5209,
      "ĠRemember": 5210,
      "ĠChildren": 5211,
      "Ġperspectives": 5212,
      "Ġdangerous": 5213,
      "Ġmainly": 5214,
      "Ġintroduction": 5215,
      "Ġatmosphere": 5216,
      "Res": 5217,
      "Ġestimated": 5218,
      "ĠIr": 5219,
      "Ġparties": 5220,
      "31": 5221,
      "Ġmer": 5222,
      "Ġsignal": 5223,
      "Ġradio": 5224,
      "ka": 5225,
      "icians": 5226,
      "Ġvaccine": 5227,
      "More": 5228,
      "ii": 5229,
      "nel": 5230,
      "Ġupper": 5231,
      "ĠEmp": 5232,
      "Ġinternet": 5233,
      "Ġamounts": 5234,
      "Ġwit": 5235,
      "anges": 5236,
      "',": 5237,
      "Ġdoub": 5238,
      "Ġ36": 5239,
      "Ġtechnical": 5240,
      "Ġplayers": 5241,
      "Ġcharge": 5242,
      "ĠSee": 5243,
      "des": 5244,
      "Ġsettings": 5245,
      "tenance": 5246,
      "reed": 5247,
      "Ġcompleted": 5248,
      "Ġannual": 5249,
      "ĠPen": 5250,
      "ĠStep": 5251,
      "Ġworkshe": 5252,
      "Ġgod": 5253,
      "lig": 5254,
      "Ġlibrary": 5255,
      "ĠSum": 5256,
      "Ġideal": 5257,
      "ĠMiddle": 5258,
      "Ġocean": 5259,
      "Ġ45": 5260,
      "Ġmotor": 5261,
      "Ġvent": 5262,
      "ormal": 5263,
      "Ġnuclear": 5264,
      "Ġfacts": 5265,
      "46": 5266,
      "Ã¼": 5267,
      "Ġcorpor": 5268,
      "Ġscenar": 5269,
      "cel": 5270,
      "ĠLearning": 5271,
      "ĠHistor": 5272,
      "âĢ²": 5273,
      "Ġband": 5274,
      "Ġbegins": 5275,
      "EL": 5276,
      "rans": 5277,
      "icious": 5278,
      "Ġ2004": 5279,
      "Ġyellow": 5280,
      "ĠEngine": 5281,
      "DA": 5282,
      "Ġcoal": 5283,
      "ĠGovernment": 5284,
      "32": 5285,
      "Ġclim": 5286,
      "rd": 5287,
      "Ġvolunt": 5288,
      "Ġcris": 5289,
      "ĠImagine": 5290,
      "Ġperiods": 5291,
      "ĠLord": 5292,
      "ĠRobert": 5293,
      "iration": 5294,
      "Ġrecognize": 5295,
      "Ġproposed": 5296,
      "Ġvessel": 5297,
      "rian": 5298,
      "ĠAdd": 5299,
      "Ġhearing": 5300,
      "ndrome": 5301,
      "Ġimpl": 5302,
      "Ġcircumst": 5303,
      "Ġgar": 5304,
      "ini": 5305,
      "yles": 5306,
      "Ġdrawing": 5307,
      "Ġleader": 5308,
      "inger": 5309,
      "Ġultimately": 5310,
      "Ġinvolving": 5311,
      "Ġmit": 5312,
      "Ġoffered": 5313,
      "zy": 5314,
      "ĠMake": 5315,
      "orough": 5316,
      "ressed": 5317,
      "Ġappreciate": 5318,
      "BC": 5319,
      "Ġapart": 5320,
      "Ġdiscipl": 5321,
      "Ġmostly": 5322,
      "ĠVirgin": 5323,
      "Com": 5324,
      "ounced": 5325,
      "------------": 5326,
      "Ġregularly": 5327,
      "ĠWomen": 5328,
      "Ġsubsequ": 5329,
      "Ġlic": 5330,
      "Ġstone": 5331,
      "Ġbattle": 5332,
      "overty": 5333,
      "ĠĠĠĠĠĠĠĠĠĠĠĠĠĠĠĠĠĠĠĠĠĠĠĠĠĠ": 5334,
      "ĠMuseum": 5335,
      "Ð¾": 5336,
      "Ġfaster": 5337,
      "Ġtraffic": 5338,
      "Ġcombined": 5339,
      "Äģ": 5340,
      "imal": 5341,
      "Ġbank": 5342,
      "ĠTwo": 5343,
      "Ġdelve": 5344,
      "Ġther": 5345,
      "ellect": 5346,
      "ĠBudd": 5347,
      "Ġsmooth": 5348,
      "Ġpun": 5349,
      "anguage": 5350,
      "itc": 5351,
      "Ġsteel": 5352,
      "Ġhit": 5353,
      "Ġclub": 5354,
      "Ġpal": 5355,
      "76": 5356,
      "ĠKore": 5357,
      "ether": 5358,
      "iday": 5359,
      "ĠWhite": 5360,
      "Ġworry": 5361,
      "ĠTex": 5362,
      "Ġhospital": 5363,
      "Ġgrand": 5364,
      "Ġnutrients": 5365,
      "Ġdestroy": 5366,
      "arsh": 5367,
      "ĠGroup": 5368,
      "Ġdouble": 5369,
      "Ġtexts": 5370,
      "Ġlooks": 5371,
      "Ġoffering": 5372,
      "Ġconsists": 5373,
      "Ġexchange": 5374,
      "Ġfruits": 5375,
      "Ġsurgery": 5376,
      "Ġscholars": 5377,
      "anch": 5378,
      "ĠTH": 5379,
      "Ð°": 5380,
      "iled": 5381,
      "Ġspaces": 5382,
      "ĠBritain": 5383,
      "Ġaffects": 5384,
      "RO": 5385,
      "Ġdie": 5386,
      "Ġhorm": 5387,
      "isher": 5388,
      "fall": 5389,
      "ĠWind": 5390,
      "Ġisland": 5391,
      "Ġfollows": 5392,
      "Ġhop": 5393,
      "umber": 5394,
      "ĠHave": 5395,
      "Ġreaction": 5396,
      "88": 5397,
      "gment": 5398,
      "Ġinformed": 5399,
      "Ġcontaining": 5400,
      "ĠDesign": 5401,
      "Ġbrief": 5402,
      "ĠST": 5403,
      "Ġdegrees": 5404,
      "Ġselected": 5405,
      "van": 5406,
      "Ġdeliver": 5407,
      "Ġcere": 5408,
      "ĠCap": 5409,
      "essor": 5410,
      "ĠMiss": 5411,
      "Ġtal": 5412,
      "Ġsubjects": 5413,
      "100": 5414,
      "Ġkinds": 5415,
      "ĠFin": 5416,
      "Ġfoundation": 5417,
      "ĠService": 5418,
      "Ġregional": 5419,
      "Ġfinally": 5420,
      "SA": 5421,
      "Ġtrain": 5422,
      "Ġrecorded": 5423,
      "Ġtouch": 5424,
      "ĠMac": 5425,
      "Ġcomputers": 5426,
      "ishes": 5427,
      "Ġvictim": 5428,
      "ĠProv": 5429,
      "Ġliquid": 5430,
      "Ġcert": 5431,
      "Ġship": 5432,
      "inant": 5433,
      "ĠRussia": 5434,
      "Ġbird": 5435,
      "Ġremind": 5436,
      "Ġmaximum": 5437,
      "estyle": 5438,
      "Ġjobs": 5439,
      "Ġintended": 5440,
      "Ġsouthern": 5441,
      "Ġinnovative": 5442,
      "burg": 5443,
      "utive": 5444,
      "Ġstorm": 5445,
      "Ġserves": 5446,
      "Ġreserv": 5447,
      "Ġarm": 5448,
      "Ġrand": 5449,
      "Ġsupporting": 5450,
      "Ġsubstant": 5451,
      "Ġfiles": 5452,
      "hent": 5453,
      "99": 5454,
      "Ġenab": 5455,
      "Ġpaint": 5456,
      "ĠDirect": 5457,
      "Ġmere": 5458,
      "ĠGoogle": 5459,
      "Ġcomprehensive": 5460,
      "Ġingredients": 5461,
      "No": 5462,
      "Ġexplained": 5463,
      "Ġdedicated": 5464,
      "Ġmedium": 5465,
      "Ġmachines": 5466,
      "thlet": 5467,
      "Ġmuscles": 5468,
      "ĠKeep": 5469,
      "Ġadvice": 5470,
      "Ġgenes": 5471,
      "iverse": 5472,
      "icing": 5473,
      "ĠJer": 5474,
      "Ġmatch": 5475,
      "Ġfostering": 5476,
      "Ġsalt": 5477,
      "rey": 5478,
      "ĠStand": 5479,
      "Ġalign": 5480,
      "Ġsector": 5481,
      "MS": 5482,
      "Ġrandom": 5483,
      "Ġshowing": 5484,
      "Ġinteractions": 5485,
      "mas": 5486,
      "Ġvs": 5487,
      "Ġimmun": 5488,
      "ĠCharles": 5489,
      "Ġwest": 5490,
      "Ġfrequency": 5491,
      "Ġnations": 5492,
      "47": 5493,
      "Have": 5494,
      "Ġrelative": 5495,
      "Ġletters": 5496,
      "Ġwear": 5497,
      "Ġreached": 5498,
      "arrow": 5499,
      "cers": 5500,
      "Ġemployees": 5501,
      "Ġcolle": 5502,
      "Ġprocedures": 5503,
      "Ġcutting": 5504,
      "with": 5505,
      "urd": 5506,
      "Ġappearance": 5507,
      "Ġrecy": 5508,
      "Ġ2003": 5509,
      "ĠMot": 5510,
      "Ġvillage": 5511,
      "Ġfib": 5512,
      "Ġexposed": 5513,
      "arp": 5514,
      "Our": 5515,
      "ĠBer": 5516,
      "ĠAdv": 5517,
      "ache": 5518,
      "Ġsamples": 5519,
      "Ġharmful": 5520,
      "ĠTechnology": 5521,
      "Ġpret": 5522,
      "Ġhelpful": 5523,
      "Ġnorthern": 5524,
      "ĠGold": 5525,
      "Ġbrand": 5526,
      "Ġlung": 5527,
      "CC": 5528,
      "Ġkilled": 5529,
      "Ġhour": 5530,
      "Ġseed": 5531,
      "Ġban": 5532,
      "Ġnoted": 5533,
      "flow": 5534,
      "eck": 5535,
      "Ġflat": 5536,
      "Ġguidance": 5537,
      "From": 5538,
      "Ġtruly": 5539,
      "Ġfarmers": 5540,
      "olute": 5541,
      "ĠWork": 5542,
      "Ġsolve": 5543,
      "ĠSuch": 5544,
      "Ġmaybe": 5545,
      "ĠJose": 5546,
      "Ġmoist": 5547,
      "Ġauthority": 5548,
      "Ġskill": 5549,
      "Ġbow": 5550,
      "bing": 5551,
      "Ġtum": 5552,
      "Ġconcern": 5553,
      "ras": 5554,
      "Ġphone": 5555,
      "Ġamazing": 5556,
      "riage": 5557,
      "ĠAD": 5558,
      "Ġamb": 5559,
      "Many": 5560,
      "Ġdiam": 5561,
      "Ġsort": 5562,
      "ped": 5563,
      "Ġencoun": 5564,
      "First": 5565,
      "Do": 5566,
      "85": 5567,
      "Ġhyper": 5568,
      "Ġanswers": 5569,
      "Ġfr": 5570,
      "ĠSar": 5571,
      "Ġdigest": 5572,
      "Ġjoint": 5573,
      "ĠItalian": 5574,
      "Ġsupported": 5575,
      "Ġvirtual": 5576,
      "Ġinnovation": 5577,
      "ĠPower": 5578,
      "ĠFe": 5579,
      "ĠArab": 5580,
      "ĠCam": 5581,
      "Ġresist": 5582,
      "ourage": 5583,
      "Ġkm": 5584,
      "ĠDan": 5585,
      "cript": 5586,
      "86": 5587,
      "ĠĠĠĠĠĠĠĠĠĠĠĠĠĠĠĠĠĠĠĠĠĠĠĠĠĠĠĠ": 5588,
      "Ġgenerate": 5589,
      "Ġgovernments": 5590,
      ".[": 5591,
      "Ġchemicals": 5592,
      "Ġcreates": 5593,
      "Ġbehaviors": 5594,
      "Ġparticles": 5595,
      "ĠMem": 5596,
      "oral": 5597,
      "Ġshaping": 5598,
      "riers": 5599,
      "Ġprepare": 5600,
      "ona": 5601,
      "Ġselection": 5602,
      "Can": 5603,
      "Ġtaught": 5604,
      "Ġspend": 5605,
      "Ġregulations": 5606,
      "Ġglob": 5607,
      "name": 5608,
      "Ġremained": 5609,
      "ĠMuslim": 5610,
      "Ġgrass": 5611,
      "ĠTotal": 5612,
      "Ġattacks": 5613,
      "cling": 5614,
      "Ġradiation": 5615,
      "Ġremote": 5616,
      "ht": 5617,
      "ĠWhe": 5618,
      "Ġdefic": 5619,
      "Ġnerv": 5620,
      "ĠDistrict": 5621,
      "faces": 5622,
      "ensus": 5623,
      "istan": 5624,
      "ĠCommon": 5625,
      "Ġclick": 5626,
      "Ġrapidly": 5627,
      "band": 5628,
      "Ġfluid": 5629,
      "Ġmobile": 5630,
      "pat": 5631,
      "Ġfabric": 5632,
      "pping": 5633,
      "Ġcircumstances": 5634,
      "Ġfacilities": 5635,
      "Ġbrother": 5636,
      "Ġmort": 5637,
      "Ġdiscovery": 5638,
      "hi": 5639,
      "ĠBay": 5640,
      "ĠEconom": 5641,
      "Ġdownload": 5642,
      "Ġprocedure": 5643,
      "Ġexistence": 5644,
      "ĠRussian": 5645,
      "Pl": 5646,
      "ota": 5647,
      "level": 5648,
      "Ġdocuments": 5649,
      "Ġvoc": 5650,
      "Ġunderlying": 5651,
      "Ġpp": 5652,
      "Ġelev": 5653,
      "Be": 5654,
      "Ġprices": 5655,
      "ĠMass": 5656,
      "sembly": 5657,
      "Ġera": 5658,
      "Ġcommunicate": 5659,
      "ava": 5660,
      "Ġrequest": 5661,
      "ena": 5662,
      "gl": 5663,
      "Ġlies": 5664,
      "Ġmotion": 5665,
      "Ġmanufacturing": 5666,
      "Ġrail": 5667,
      "Ġsche": 5668,
      "Ġtalking": 5669,
      "ĠCivil": 5670,
      "Ġ32": 5671,
      "Ġinterview": 5672,
      "ĠLake": 5673,
      "Ġcloser": 5674,
      "adian": 5675,
      "ĠDet": 5676,
      "Ġintric": 5677,
      "acific": 5678,
      "Ġbright": 5679,
      "Ġspl": 5680,
      "Ġacknow": 5681,
      "Ġinstrument": 5682,
      "Ġdivided": 5683,
      "yt": 5684,
      "Ġforced": 5685,
      "Ġplease": 5686,
      "Ġboost": 5687,
      "osc": 5688,
      "Ġcareful": 5689,
      "Ġdu": 5690,
      "Ġtransition": 5691,
      "ĠBro": 5692,
      "ĠEnergy": 5693,
      "Ġtiny": 5694,
      "Ġhaz": 5695,
      "Ġdiscrim": 5696,
      "Ġaudience": 5697,
      "Ġ------": 5698,
      "Ġdro": 5699,
      "ĠTem": 5700,
      "Ġabuse": 5701,
      "Ġwalls": 5702,
      "rix": 5703,
      "Ġlooked": 5704,
      "win": 5705,
      "ĠVict": 5706,
      "Ġslightly": 5707,
      "active": 5708,
      "lo": 5709,
      "aturally": 5710,
      "ĠĠĠĠĠĠĠĠĠĠĠĠĠĠĠĠĠĠĠĠĠĠĠĠĠĠĠĠĠĠĠĠĠĠĠĠĠĠ": 5711,
      "ĠForm": 5712,
      "Ġwriter": 5713,
      "89": 5714,
      "rors": 5715,
      "Ġstages": 5716,
      "ĠKnow": 5717,
      "Ġexploration": 5718,
      "Ġaimed": 5719,
      "Ġaw": 5720,
      "ĠPlay": 5721,
      "oxide": 5722,
      "ĠPost": 5723,
      "Ġcollected": 5724,
      "Ġthin": 5725,
      "ĠLouis": 5726,
      "Ġknew": 5727,
      "That": 5728,
      "ĠHome": 5729,
      "Ġabilities": 5730,
      "plicated": 5731,
      "la": 5732,
      "Ġremoved": 5733,
      "Ġlabel": 5734,
      "eer": 5735,
      "asure": 5736,
      "arant": 5737,
      "77": 5738,
      "Ġpictures": 5739,
      "ails": 5740,
      "Ġfort": 5741,
      "Ġsen": 5742,
      "Ġmanner": 5743,
      "lers": 5744,
      "ums": 5745,
      "Ġaddressing": 5746,
      "Ġproteins": 5747,
      "OS": 5748,
      "TS": 5749,
      "Ġhero": 5750,
      "ogether": 5751,
      "Ġindicate": 5752,
      "Ġprompt": 5753,
      "Ġcustomers": 5754,
      "ĠHenry": 5755,
      "ifies": 5756,
      "mic": 5757,
      "Ġdriving": 5758,
      "Ġbiological": 5759,
      "ĠSmith": 5760,
      "han": 5761,
      "Ġdetailed": 5762,
      "Ġvehicle": 5763,
      "Ġped": 5764,
      "Ġdiagnosis": 5765,
      "ĠMill": 5766,
      "ĠLeague": 5767,
      "Ġmechanisms": 5768,
      "Ġprogramming": 5769,
      "Ġethical": 5770,
      "ĠDivision": 5771,
      "Ġemergency": 5772,
      "Ġsurvival": 5773,
      "ĠBible": 5774,
      "certain": 5775,
      "Ġassistance": 5776,
      "Ġconclud": 5777,
      "Ġmaintenance": 5778,
      "DF": 5779,
      "Ġahead": 5780,
      "Ġprecise": 5781,
      "ĠEss": 5782,
      "gra": 5783,
      "Ġfrag": 5784,
      "Ġtrends": 5785,
      "Ġsides": 5786,
      "erent": 5787,
      "Ġraised": 5788,
      "Ġresilience": 5789,
      "Ġnurs": 5790,
      "Ġfirm": 5791,
      "Ġmanaging": 5792,
      "Ġrelax": 5793,
      "Ġhabits": 5794,
      "celer": 5795,
      "Ġkept": 5796,
      "rolog": 5797,
      "Ġplatforms": 5798,
      "ta": 5799,
      "Ġliterary": 5800,
      "Ġpand": 5801,
      "Ġtoxic": 5802,
      "itan": 5803,
      "icks": 5804,
      "Ġsud": 5805,
      "ĠScott": 5806,
      "Ġsufficient": 5807,
      "Ã¶": 5808,
      "Ġconsistent": 5809,
      "Ðµ": 5810,
      "ĠEth": 5811,
      "erals": 5812,
      "nect": 5813,
      "Ġloved": 5814,
      "Ġmoral": 5815,
      "Ġhabitat": 5816,
      "Ġneighb": 5817,
      "Ġlik": 5818,
      "unk": 5819,
      "Ġlose": 5820,
      "ĠSing": 5821,
      "Ġdiscussed": 5822,
      "osite": 5823,
      "ĠAnother": 5824,
      "Ġax": 5825,
      "Ġcreativity": 5826,
      "Ġ<": 5827,
      "ĠMain": 5828,
      "ĠAtl": 5829,
      "Ġopening": 5830,
      "Ġconcentration": 5831,
      "ifications": 5832,
      "herent": 5833,
      "Ġfiction": 5834,
      "Ġplot": 5835,
      "Ġagriculture": 5836,
      "iatric": 5837,
      "itors": 5838,
      "Ġbeauty": 5839,
      "Ġdrinking": 5840,
      "].": 5841,
      "bi": 5842,
      "Ġfoss": 5843,
      "stood": 5844,
      "Ġkill": 5845,
      "Ġcars": 5846,
      "Ġpray": 5847,
      "Ġwet": 5848,
      "ĠBook": 5849,
      "Ġexamining": 5850,
      "56": 5851,
      "Ġchosen": 5852,
      "Ġrecovery": 5853,
      "utch": 5854,
      "ĠAS": 5855,
      "Ġwhom": 5856,
      "Ġinflammation": 5857,
      "Ġpsychological": 5858,
      "Ġtraum": 5859,
      "Ġdistrict": 5860,
      "yr": 5861,
      "ĠTor": 5862,
      "Ġknows": 5863,
      "Ġsuggested": 5864,
      "ĠSet": 5865,
      "Ġsell": 5866,
      "ĠStr": 5867,
      "ults": 5868,
      "tering": 5869,
      "Ġcrops": 5870,
      "aks": 5871,
      "ĠTer": 5872,
      "Ġsudden": 5873,
      "free": 5874,
      "Ġ1990": 5875,
      "Ġensures": 5876,
      "ĠMedical": 5877,
      "cest": 5878,
      "Ġkil": 5879,
      "Ġdepends": 5880,
      "Ġlatest": 5881,
      "Ġaccompl": 5882,
      "Ġdut": 5883,
      "rieved": 5884,
      "Ġ%": 5885,
      "Ġotherwise": 5886,
      "Ġcooking": 5887,
      "lements": 5888,
      "Ġelectronic": 5889,
      "ĠSaf": 5890,
      "Ġlayers": 5891,
      "Ġpoverty": 5892,
      "aming": 5893,
      "amily": 5894,
      "Ġtypical": 5895,
      "Ġpolitics": 5896,
      "pet": 5897,
      "ĠTurn": 5898,
      "ĠNews": 5899,
      "Ġvot": 5900,
      "Ġintellect": 5901,
      "Ġwindow": 5902,
      "stract": 5903,
      "racy": 5904,
      "ĠĠĠĠĠĠĠĠĠĠĠĠĠĠĠĠĠĠĠĠĠĠĠĠĠĠĠĠĠĠĠĠĠĠĠĠĠĠĠĠĠĠĠĠĠĠ": 5905,
      "Ġmillions": 5906,
      "while": 5907,
      "ĠÎ": 5908,
      "Ġroutine": 5909,
      "west": 5910,
      "Ġhunt": 5911,
      "ĠFre": 5912,
      "Ġstudied": 5913,
      "Ġcardi": 5914,
      "alled": 5915,
      "Ġphr": 5916,
      "Ġcomposition": 5917,
      "ĠTexas": 5918,
      "Ġstem": 5919,
      "Ġsensitive": 5920,
      "riend": 5921,
      "Ġadequ": 5922,
      "Ġtun": 5923,
      "Ġsettle": 5924,
      "ĠLike": 5925,
      "Ġinstruction": 5926,
      "Ġcrisis": 5927,
      "ION": 5928,
      "ĠJud": 5929,
      "Ġargument": 5930,
      "Ġmorning": 5931,
      "inf": 5932,
      "ĠCre": 5933,
      "ĠBus": 5934,
      "Ġcompetition": 5935,
      "ND": 5936,
      "ĠGood": 5937,
      "Ġrecognized": 5938,
      "ĠCatholic": 5939,
      "Ġconscious": 5940,
      "Ġreturned": 5941,
      "Ġvehicles": 5942,
      "Ġ2002": 5943,
      "Ġsend": 5944,
      "Ġdoll": 5945,
      "Ġgun": 5946,
      "Ġmetab": 5947,
      "Ġlisten": 5948,
      "ĠMicro": 5949,
      "Ġrural": 5950,
      "ĠCD": 5951,
      "Ġenables": 5952,
      "----------------------------------------------------------------": 5953,
      "Ġcertainly": 5954,
      "gal": 5955,
      "New": 5956,
      "ĠBet": 5957,
      "Ġpersist": 5958,
      "writ": 5959,
      "ĠMajor": 5960,
      "Ġtrial": 5961,
      "Ġformal": 5962,
      "ascular": 5963,
      "Ġbudget": 5964,
      "ĠMad": 5965,
      "Ġdomestic": 5966,
      "Ġchain": 5967,
      "Ġengagement": 5968,
      "ĠAustralian": 5969,
      "Ġdefe": 5970,
      "Ġdesigns": 5971,
      "Ġwaters": 5972,
      "ĠKen": 5973,
      "agers": 5974,
      "Ġhappy": 5975,
      "ups": 5976,
      "Ġgrown": 5977,
      "Ġstruggle": 5978,
      "42": 5979,
      "Ind": 5980,
      "organ": 5981,
      "Ġnit": 5982,
      "Ġcontrolled": 5983,
      "ship": 5984,
      "kin": 5985,
      "Ġwel": 5986,
      "Ġimplications": 5987,
      "Ġprem": 5988,
      "Ġ2001": 5989,
      "Ġdefine": 5990,
      "stream": 5991,
      "ĠUSA": 5992,
      "agon": 5993,
      "Ġexercises": 5994,
      "ï»": 5995,
      "ĠFlor": 5996,
      "ĠCr": 5997,
      "Ġagricultural": 5998,
      "Ġdesired": 5999,
      "Ġviews": 6000,
      "IG": 6001,
      "Ġboundaries": 6002,
      "Ġnarratives": 6003,
      "abul": 6004,
      "Ġcomment": 6005,
      "59": 6006,
      "Ġcoin": 6007,
      "asive": 6008,
      "Ġallerg": 6009,
      "ĠTreat": 6010,
      "Ġinteraction": 6011,
      "oviet": 6012,
      "Ġobtained": 6013,
      "ĠWho": 6014,
      "ĠCompany": 6015,
      "ĠEst": 6016,
      "Ġcloud": 6017,
      "ĠĠĠĠĠĠĠĠĠĠĠĠĠĠĠĠĠĠĠĠĠĠĠĠĠĠĠĠĠ": 6018,
      "Ġwasn": 6019,
      "ĠStudies": 6020,
      "uing": 6021,
      "Ġhandle": 6022,
      "ĠBre": 6023,
      "Ġrecon": 6024,
      "Ġwire": 6025,
      "iberal": 6026,
      "Ġgirls": 6027,
      "ĠDespite": 6028,
      "Ġneut": 6029,
      "ashion": 6030,
      "ĠHall": 6031,
      "Ġadvantages": 6032,
      "ĠHIV": 6033,
      "Americ": 6034,
      "Ġarchitecture": 6035,
      "Ġmanaged": 6036,
      "Ġneuro": 6037,
      "Although": 6038,
      "Ġindex": 6039,
      "ao": 6040,
      "roke": 6041,
      "Ġcrim": 6042,
      "Ġclaims": 6043,
      "long": 6044,
      "ĠMel": 6045,
      "Ġsnow": 6046,
      "Ġstarts": 6047,
      "Ġshapes": 6048,
      "Ġphotos": 6049,
      "Ġcatch": 6050,
      "Ġnor": 6051,
      "Ġment": 6052,
      "hist": 6053,
      "Ġmulti": 6054,
      "Ġaf": 6055,
      "ĠRob": 6056,
      "Ġlearners": 6057,
      "Ġoccurred": 6058,
      "Ġsubstance": 6059,
      "Ġincorporating": 6060,
      "Ġgained": 6061,
      "Ġrecognition": 6062,
      "Ġremark": 6063,
      "ossible": 6064,
      "Ġsatell": 6065,
      "Ġpig": 6066,
      "Ġleaf": 6067,
      "Ġerror": 6068,
      "Ġrub": 6069,
      "Ġeast": 6070,
      "Ġdisapp": 6071,
      "Ġrepresentation": 6072,
      "ersonal": 6073,
      "Ġobst": 6074,
      "Ġafford": 6075,
      "Ġcritic": 6076,
      "Ġsick": 6077,
      "Ġcurriculum": 6078,
      "Ġstored": 6079,
      "Ġconventional": 6080,
      "Ġaccounts": 6081,
      "Ġbroader": 6082,
      "ulin": 6083,
      "Ġtransmission": 6084,
      "Ġauthent": 6085,
      "Us": 6086,
      "Ġthorough": 6087,
      "Ġframework": 6088,
      "Ġlocations": 6089,
      "ĠOh": 6090,
      "Ġperman": 6091,
      "ye": 6092,
      "ĠTim": 6093,
      "ĠWin": 6094,
      "ĠMont": 6095,
      "Ġpark": 6096,
      "Ġbrown": 6097,
      "Ġinstructions": 6098,
      "uracy": 6099,
      "Ġspeaking": 6100,
      "Ġcompr": 6101,
      "Before": 6102,
      "aser": 6103,
      "from": 6104,
      "Ġtaste": 6105,
      "Ġshif": 6106,
      "Ġintervention": 6107,
      "Ġfif": 6108,
      "Ġmatters": 6109,
      "ĠVirginia": 6110,
      "Ġreform": 6111,
      "Ġstret": 6112,
      "ĠSpace": 6113,
      "ĠFrank": 6114,
      "Ġeveryday": 6115,
      "ĠIntroduction": 6116,
      "Ġlots": 6117,
      "Ġod": 6118,
      "Ġrhy": 6119,
      "Ġacts": 6120,
      "Ġopened": 6121,
      "ĠItaly": 6122,
      "Ġcourses": 6123,
      "Ġsin": 6124,
      "Ġlinks": 6125,
      "Ġconfidence": 6126,
      "Ġresponses": 6127,
      "500": 6128,
      "hand": 6129,
      "ĠPers": 6130,
      "Ġharvest": 6131,
      "Ġproport": 6132,
      "Ġarray": 6133,
      "ictionary": 6134,
      "Ġchart": 6135,
      "Ġartist": 6136,
      "ĠEnvironmental": 6137,
      "Ġmeasured": 6138,
      "Ġpresc": 6139,
      "roduct": 6140,
      "Ġdiscussions": 6141,
      "Ġtried": 6142,
      "Ġ39": 6143,
      "ĠExper": 6144,
      "Ġsuccessfully": 6145,
      "Ġsweet": 6146,
      "Ġfoster": 6147,
      "Ġconsidering": 6148,
      "Ġbattery": 6149,
      "OT": 6150,
      "ĠCarol": 6151,
      "which": 6152,
      "ĠCommission": 6153,
      "Ġconcrete": 6154,
      "ĠMo": 6155,
      "net": 6156,
      "ĠCourse": 6157,
      "ctor": 6158,
      "sey": 6159,
      "uls": 6160,
      "umin": 6161,
      "under": 6162,
      "De": 6163,
      "Ġpil": 6164,
      "aud": 6165,
      "othe": 6166,
      "orrow": 6167,
      "Ġwestern": 6168,
      "Ġhorse": 6169,
      "Ġtransportation": 6170,
      "roc": 6171,
      "ĠNAS": 6172,
      "Ġmanip": 6173,
      "anged": 6174,
      "ĠSimilarly": 6175,
      "ĠBC": 6176,
      "Ġdrink": 6177,
      "Ġwants": 6178,
      "Ġshel": 6179,
      "Once": 6180,
      "NS": 6181,
      "Ġexplan": 6182,
      "Ġvariable": 6183,
      "Ġdecrease": 6184,
      "Ġwife": 6185,
      "ads": 6186,
      "Ġstars": 6187,
      "ansion": 6188,
      "add": 6189,
      "ĠLong": 6190,
      "RI": 6191,
      "Ġrecip": 6192,
      "Ġnearby": 6193,
      "Ġanalyze": 6194,
      "ato": 6195,
      "Ġarrange": 6196,
      "Ġdatabase": 6197,
      "itudes": 6198,
      "then": 6199,
      "Ġindustries": 6200,
      "inet": 6201,
      "Ġ38": 6202,
      "Ġsuffering": 6203,
      "79": 6204,
      "orous": 6205,
      "ĠSoviet": 6206,
      "Ġhidden": 6207,
      "ï»¿": 6208,
      "ĠPacific": 6209,
      "ĠList": 6210,
      "Ġarmy": 6211,
      "Ġpolice": 6212,
      "Ġprevention": 6213,
      "Ġminimum": 6214,
      "df": 6215,
      "Ġstronger": 6216,
      "Ġsimpl": 6217,
      "ĠStudy": 6218,
      "Ġparalle": 6219,
      "Ġoverl": 6220,
      "Ġscore": 6221,
      "Ġdistingu": 6222,
      "apping": 6223,
      "Ġphilosophy": 6224,
      "mes": 6225,
      "Ġimprovement": 6226,
      "During": 6227,
      "Ġtro": 6228,
      "ala": 6229,
      "adium": 6230,
      "Ġachieved": 6231,
      "Ġknowing": 6232,
      "ipping": 6233,
      "05": 6234,
      "Ġastron": 6235,
      "Ġresidents": 6236,
      "Ġorganized": 6237,
      "Ġessays": 6238,
      "liam": 6239,
      "ĠFree": 6240,
      "Ġinsurance": 6241,
      "Ġdemonstrate": 6242,
      "Ġderived": 6243,
      "oding": 6244,
      "ĠBur": 6245,
      "ĠSpain": 6246,
      "ĠInformation": 6247,
      "RA": 6248,
      "ĠPC": 6249,
      "ĠPeter": 6250,
      "Ġrough": 6251,
      "Ġartificial": 6252,
      "Ġfeedback": 6253,
      "Ġnaturally": 6254,
      "Ġmarked": 6255,
      "Ġasking": 6256,
      "Ġarts": 6257,
      "zil": 6258,
      "ivery": 6259,
      "gent": 6260,
      "Ġplayer": 6261,
      "ĠClin": 6262,
      "ĠMichael": 6263,
      "Ġportion": 6264,
      "itt": 6265,
      "Most": 6266,
      "41": 6267,
      "Ġbeneficial": 6268,
      "Ġlisted": 6269,
      "Ġfloor": 6270,
      "Ġmedications": 6271,
      "ĠGet": 6272,
      "Ġusage": 6273,
      "ĠScient": 6274,
      "Ġvibr": 6275,
      "Ġagreement": 6276,
      "ĠDiff": 6277,
      "Ġsoldiers": 6278,
      "ĠSir": 6279,
      "Ġsentence": 6280,
      "Re": 6281,
      "teries": 6282,
      "Ġethnic": 6283,
      "ita": 6284,
      "Ġnavigate": 6285,
      "Ġtow": 6286,
      "Ġpregnancy": 6287,
      "lines": 6288,
      "Ġraw": 6289,
      "Ġpapers": 6290,
      "Ġlargely": 6291,
      "ĠRad": 6292,
      "iform": 6293,
      "Ġextent": 6294,
      "Ġrevealed": 6295,
      "Ġresol": 6296,
      "Ġraise": 6297,
      "Ġblog": 6298,
      "Ġadministr": 6299,
      "Ġpump": 6300,
      "Te": 6301,
      "Ġproducing": 6302,
      "ĠScot": 6303,
      "atal": 6304,
      "Ġtoler": 6305,
      "Ġprotected": 6306,
      "Ġneighbor": 6307,
      "Ġtechnological": 6308,
      "Ġretain": 6309,
      "Ġvisible": 6310,
      "what": 6311,
      "Ġunex": 6312,
      "Ġwriters": 6313,
      "ĠControl": 6314,
      "roid": 6315,
      "Ġuns": 6316,
      "Ġsecondary": 6317,
      "eless": 6318,
      "ultane": 6319,
      "Ġimplementation": 6320,
      "Ġconsumers": 6321,
      "Ġdecide": 6322,
      "Conclusion": 6323,
      "Ġappeared": 6324,
      "Ġdynamics": 6325,
      "anes": 6326,
      "ĠPython": 6327,
      "Ġvariables": 6328,
      "ĠOpen": 6329,
      "ffee": 6330,
      "Ġheritage": 6331,
      "ĠPsych": 6332,
      "apes": 6333,
      "Ġfunding": 6334,
      "Ġtells": 6335,
      "Ġdynamic": 6336,
      "Ġattend": 6337,
      "Ġcalls": 6338,
      "ĠVis": 6339,
      "liament": 6340,
      "Ġpron": 6341,
      "Ġshell": 6342,
      "Ġprofessor": 6343,
      "Ġdivision": 6344,
      "Ġfiber": 6345,
      "ella": 6346,
      "reland": 6347,
      "Ġwhereas": 6348,
      "ĠJohns": 6349,
      "ĠSometimes": 6350,
      "En": 6351,
      "ĠWorks": 6352,
      "43": 6353,
      "ĠCamp": 6354,
      "Ġmarine": 6355,
      "Ġfunctional": 6356,
      "Ġwalking": 6357,
      "ua": 6358,
      "ĠDise": 6359,
      "Ġcollective": 6360,
      "isdom": 6361,
      "Ġholds": 6362,
      "Ġperce": 6363,
      "Ġwitness": 6364,
      "Ġancest": 6365,
      "Ġswitch": 6366,
      "ĠRepublican": 6367,
      "Ġliver": 6368,
      "ĠIdent": 6369,
      "Ġwaves": 6370,
      "Ġdirector": 6371,
      "Ġlifestyle": 6372,
      "Ġinhab": 6373,
      "Ġgreatest": 6374,
      "Ġdoctors": 6375,
      "Ġunknown": 6376,
      "hire": 6377,
      "Ġtea": 6378,
      "Ġnarrow": 6379,
      "Ġfacing": 6380,
      "Ġpaid": 6381,
      "sis": 6382,
      "ĠJews": 6383,
      "ican": 6384,
      "Ġ>": 6385,
      "Ġsole": 6386,
      "ING": 6387,
      "Ġsyndrome": 6388,
      "Ġinspired": 6389,
      "ĠAnn": 6390,
      "Ġobvious": 6391,
      "Ġsignals": 6392,
      "Ġplate": 6393,
      "ĠYear": 6394,
      "iosity": 6395,
      "Ġclosed": 6396,
      "sts": 6397,
      "acts": 6398,
      "Ġinner": 6399,
      "Ġweap": 6400,
      "rate": 6401,
      "uh": 6402,
      "Ġunlike": 6403,
      "Ġpassion": 6404,
      "Ġcouple": 6405,
      "ĠReview": 6406,
      "vity": 6407,
      "Ġemployed": 6408,
      "Ġindigenous": 6409,
      "Ġexplains": 6410,
      "Ġinjuries": 6411,
      "Ġwildlife": 6412,
      "kes": 6413,
      "Ġmac": 6414,
      "Ġparticipate": 6415,
      "ependent": 6416,
      "Ġremaining": 6417,
      "Â·": 6418,
      "ĠRome": 6419,
      "Ġrestrict": 6420,
      "Ġconsumer": 6421,
      "ĠRichard": 6422,
      "ĠJoseph": 6423,
      "gu": 6424,
      "Ġstock": 6425,
      "Sc": 6426,
      "Ġdescribes": 6427,
      "Ġregul": 6428,
      "Ġdepth": 6429,
      "Ġadministration": 6430,
      "Ġedge": 6431,
      "ĠMag": 6432,
      "Ġrig": 6433,
      "Ġchildhood": 6434,
      "Ġprotocol": 6435,
      "Ġsequence": 6436,
      "ĠNon": 6437,
      "ĠMedicine": 6438,
      "Ġextended": 6439,
      "Ġevaluation": 6440,
      "hus": 6441,
      "lar": 6442,
      "Ġstands": 6443,
      "Ġfocuses": 6444,
      "ocation": 6445,
      "52": 6446,
      "Ġmuseum": 6447,
      "ĠTV": 6448,
      "Ġmonitor": 6449,
      "Ġoptimal": 6450,
      "igan": 6451,
      "Ab": 6452,
      "Ġmountain": 6453,
      "Ġmessages": 6454,
      "OU": 6455,
      "ĠViet": 6456,
      "ĠAbout": 6457,
      "ĠFoundation": 6458,
      "alse": 6459,
      "Ġunderstood": 6460,
      "Ġhundreds": 6461,
      "anda": 6462,
      "Ġages": 6463,
      "Ġalongside": 6464,
      "Ġmeaningful": 6465,
      "Ġinfected": 6466,
      "ropical": 6467,
      "Ġfootball": 6468,
      "Ġappreciation": 6469,
      "Ġcharacterized": 6470,
      "Ġsocietal": 6471,
      "ĠDemocratic": 6472,
      "Gen": 6473,
      "Ġexpensive": 6474,
      "Ġwait": 6475,
      "nam": 6476,
      "Ġfill": 6477,
      "Ġincredible": 6478,
      "Ġevaluate": 6479,
      "Ġexamination": 6480,
      "Ġinstitution": 6481,
      "Ġstick": 6482,
      "atever": 6483,
      "Ġshift": 6484,
      "spec": 6485,
      "ĠStat": 6486,
      "Ġentirely": 6487,
      "ĠTitle": 6488,
      "ocracy": 6489,
      "isp": 6490,
      "ĠAcc": 6491,
      "ĠSea": 6492,
      "Ġcrow": 6493,
      "Ġseeing": 6494,
      "Ġ1998": 6495,
      "iratory": 6496,
      "Ġsuc": 6497,
      "fulness": 6498,
      "Ġmixed": 6499,
      "ĠVictor": 6500,
      "izer": 6501,
      "clus": 6502,
      "kins": 6503,
      "Ġmigr": 6504,
      "Ġgenerated": 6505,
      "Ġcapture": 6506,
      "Se": 6507,
      "Ġsport": 6508,
      "Ġmining": 6509,
      "Ġmarried": 6510,
      "09": 6511,
      "ĠSouthern": 6512,
      "Ġ1999": 6513,
      "imens": 6514,
      "Ġemerging": 6515,
      "Ġsusp": 6516,
      "Ġprinciple": 6517,
      "iability": 6518,
      "Ġnegot": 6519,
      "Ġrepresented": 6520,
      "Ġcyber": 6521,
      "Ġfertil": 6522,
      "esity": 6523,
      "ĠConsider": 6524,
      "ĠKey": 6525,
      "Ġdent": 6526,
      "throp": 6527,
      "Ġconcerned": 6528,
      "ĠEmpire": 6529,
      "Ġreader": 6530,
      "icate": 6531,
      "ĠTre": 6532,
      "Ġpositions": 6533,
      "Ġdin": 6534,
      "Ġbrings": 6535,
      "Ġwave": 6536,
      "Ġacceler": 6537,
      "Ġgram": 6538,
      "Ġtransp": 6539,
      "chers": 6540,
      "Ġstyles": 6541,
      "appy": 6542,
      "Ġconversation": 6543,
      "Under": 6544,
      "ĠLand": 6545,
      "Ġ37": 6546,
      "Ġcontinuous": 6547,
      "Ġcategories": 6548,
      "Ġchick": 6549,
      "ĠNav": 6550,
      "Ġempathy": 6551,
      "Ġcomfortable": 6552,
      "ditional": 6553,
      "Ġsupports": 6554,
      "66": 6555,
      "ĠHaw": 6556,
      "Ġfixed": 6557,
      "Ġofficials": 6558,
      "uke": 6559,
      "Ġmassive": 6560,
      "Ġ33": 6561,
      "Ġhoriz": 6562,
      "vis": 6563,
      "ĠSil": 6564,
      "Ġexciting": 6565,
      "Ġthreats": 6566,
      "ĠâĪĴ": 6567,
      "ĠMen": 6568,
      "01": 6569,
      "Ġstability": 6570,
      "ĠHam": 6571,
      "ĠEarly": 6572,
      "87": 6573,
      "Ġaccuracy": 6574,
      "ĠMean": 6575,
      "ĠConstitution": 6576,
      "Ġconfident": 6577,
      "Ġstated": 6578,
      "uous": 6579,
      "Ġaward": 6580,
      "Ġexpectations": 6581,
      "Ġserver": 6582,
      "Ġtit": 6583,
      "Ġyield": 6584,
      "ĠRevolution": 6585,
      "lets": 6586,
      "ĠStreet": 6587,
      "Ġadopted": 6588,
      "raining": 6589,
      "ĠSym": 6590,
      "essions": 6591,
      "Ġtested": 6592,
      "icking": 6593,
      "Ġlistening": 6594,
      "aria": 6595,
      "ventions": 6596,
      "that": 6597,
      "Ġclust": 6598,
      "Dr": 6599,
      "Ġthereby": 6600,
      "ĠRacing": 6601,
      "ĠĠĠĠĠĠĠĠĠĠĠĠĠĠĠĠĠĠĠĠĠĠĠĠĠĠĠ": 6602,
      "Ġrow": 6603,
      "Ġimper": 6604,
      "()": 6605,
      "ĠIreland": 6606,
      "Ġstake": 6607,
      "ĠThink": 6608,
      "omach": 6609,
      "ĠWild": 6610,
      "Ġnoise": 6611,
      "Ġsan": 6612,
      "Ġsed": 6613,
      "abulary": 6614,
      "CT": 6615,
      "hesis": 6616,
      "Ġsummary": 6617,
      "ait": 6618,
      "Ġic": 6619,
      "Ġtall": 6620,
      "holders": 6621,
      "Ġmoon": 6622,
      "ĠMer": 6623,
      "Ġratio": 6624,
      "Ġflo": 6625,
      "Ġbehaviour": 6626,
      "osph": 6627,
      "Ġopinion": 6628,
      "ĠBest": 6629,
      "ĠQuest": 6630,
      "AA": 6631,
      "Ġaircraft": 6632,
      "Ġcircuit": 6633,
      "Ġfle": 6634,
      "Ġreliable": 6635,
      "war": 6636,
      "ĠDig": 6637,
      "Ġlaun": 6638,
      "oto": 6639,
      "ĠEqu": 6640,
      "Ġbutter": 6641,
      "Ġpull": 6642,
      "Ġdeeply": 6643,
      "ĠTom": 6644,
      "Ġinches": 6645,
      "Ġcm": 6646,
      "Ġpropos": 6647,
      "Ġintake": 6648,
      "CD": 6649,
      "orter": 6650,
      "ĠPop": 6651,
      "asty": 6652,
      "Ġapparent": 6653,
      "icago": 6654,
      "Ġ1980": 6655,
      "ittle": 6656,
      "stone": 6657,
      "ĠColumb": 6658,
      "Ġindicates": 6659,
      "Ġpersons": 6660,
      "Ġcreatures": 6661,
      "57": 6662,
      "Ġjoined": 6663,
      "CS": 6664,
      "itting": 6665,
      "itivity": 6666,
      "python": 6667,
      "Ġtheories": 6668,
      "Ġmedication": 6669,
      "ĠGlobal": 6670,
      "BT": 6671,
      "ĠBir": 6672,
      "Ġaccident": 6673,
      "itative": 6674,
      "ĠPan": 6675,
      "Ġfounded": 6676,
      "bur": 6677,
      "Ġtap": 6678,
      "Ġextensive": 6679,
      "asters": 6680,
      "umes": 6681,
      "Ġabsolute": 6682,
      "Ġ2022": 6683,
      "Ġstanding": 6684,
      "Ġsurvive": 6685,
      "esson": 6686,
      "Ġelectron": 6687,
      "Ġfav": 6688,
      "Ġslowly": 6689,
      "itual": 6690,
      "ented": 6691,
      "ĠEastern": 6692,
      "Ġdoor": 6693,
      "Ġpresentation": 6694,
      "Ġentry": 6695,
      "Ġgall": 6696,
      "ĠCreat": 6697,
      "ĠLanguage": 6698,
      "Ġbread": 6699,
      "Ġscene": 6700,
      "Ġdemonstrated": 6701,
      "ĠOx": 6702,
      "Ġpursu": 6703,
      "rin": 6704,
      "ĠAp": 6705,
      "ĠField": 6706,
      "Ġadap": 6707,
      "Ġrid": 6708,
      "Through": 6709,
      "Ġcompounds": 6710,
      "Ġmeal": 6711,
      "Ġtheme": 6712,
      "uten": 6713,
      "weight": 6714,
      "Ġindu": 6715,
      "coming": 6716,
      "ĠRetrieved": 6717,
      "Ġintellectual": 6718,
      "Ġfly": 6719,
      "Ġble": 6720,
      "normal": 6721,
      "asts": 6722,
      "ĠConst": 6723,
      "Ġoriginally": 6724,
      "agram": 6725,
      "Ġrely": 6726,
      "Ġsky": 6727,
      "Ġbones": 6728,
      "dule": 6729,
      "Ġserving": 6730,
      "Ġpurchase": 6731,
      "58": 6732,
      "Ġdensity": 6733,
      "Read": 6734,
      "point": 6735,
      "word": 6736,
      "ĠJul": 6737,
      "Ġcrime": 6738,
      "Ġpandemic": 6739,
      "ĠWood": 6740,
      "ĠModern": 6741,
      "Ġuncertain": 6742,
      "Ġelected": 6743,
      "Ġaims": 6744,
      "Ġsales": 6745,
      "tage": 6746,
      "Ġcart": 6747,
      "ola": 6748,
      "ĠNative": 6749,
      "ĠCommit": 6750,
      "ĠCanadian": 6751,
      "Ġreduces": 6752,
      "Ġpowers": 6753,
      "51": 6754,
      "ĠFederal": 6755,
      "Ġaffecting": 6756,
      "opic": 6757,
      "ieties": 6758,
      "Ġhouses": 6759,
      "oom": 6760,
      "hemical": 6761,
      "ĠParis": 6762,
      "Ġindependence": 6763,
      "Ġemerged": 6764,
      "inder": 6765,
      "ugh": 6766,
      "arity": 6767,
      "ĠIP": 6768,
      "ĠBefore": 6769,
      "Ġcommitment": 6770,
      "Ġmarkets": 6771,
      "agraph": 6772,
      "text": 6773,
      "Ġstable": 6774,
      "Ġfract": 6775,
      "ighter": 6776,
      "Ġmeals": 6777,
      "ĠBrazil": 6778,
      "Ġ500": 6779,
      "Ġturns": 6780,
      "cies": 6781,
      "Ġpure": 6782,
      "Ġcraft": 6783,
      "Ġpretty": 6784,
      "Ġfant": 6785,
      "Ġagencies": 6786,
      "Ġ)": 6787,
      "Ġaqu": 6788,
      "Ġeld": 6789,
      "Ġchief": 6790,
      "levision": 6791,
      "53": 6792,
      "Ġfell": 6793,
      "Ġ34": 6794,
      "Ġregist": 6795,
      "ano": 6796,
      "Ġhealing": 6797,
      "06": 6798,
      "ĠLabor": 6799,
      "Ġinsight": 6800,
      "ibl": 6801,
      "ĠAmong": 6802,
      "Ġarrived": 6803,
      "Ġinfluenced": 6804,
      "Ġforests": 6805,
      "HO": 6806,
      "Ð¸": 6807,
      "54": 6808,
      "died": 6809,
      "Ġsod": 6810,
      "tic": 6811,
      "xture": 6812,
      "Ġsupplement": 6813,
      "Ġreactions": 6814,
      "ĠRights": 6815,
      "Ġpainting": 6816,
      "ester": 6817,
      "state": 6818,
      "uts": 6819,
      "body": 6820,
      "rid": 6821,
      "Ġsimultane": 6822,
      "Ġconvey": 6823,
      "Ġtransact": 6824,
      "ĠFlorida": 6825,
      "ulpt": 6826,
      "Ġ--------------------": 6827,
      "ali": 6828,
      "Ġbot": 6829,
      "Ġmechanism": 6830,
      "ĠLiter": 6831,
      "Ġdelivery": 6832,
      "Ġauthorities": 6833,
      "Ġmembr": 6834,
      "Cont": 6835,
      "Ġbreath": 6836,
      "no": 6837,
      "ĠClub": 6838,
      "Ġexperiments": 6839,
      "ĠFinally": 6840,
      "Ġnormally": 6841,
      "mm": 6842,
      "Ġcoffee": 6843,
      "Ġinitially": 6844,
      "Ġdifficulty": 6845,
      "Ġ300": 6846,
      "Ġdescription": 6847,
      "ĠOffice": 6848,
      "Ġfighting": 6849,
      "ĠIll": 6850,
      "Me": 6851,
      "Ġflight": 6852,
      "Ġorganisms": 6853,
      "ani": 6854,
      "Ġuniversity": 6855,
      "assion": 6856,
      "Ġsupplies": 6857,
      "wing": 6858,
      "ocking": 6859,
      "Ġagency": 6860,
      "ĠEnd": 6861,
      "Ġcustomer": 6862,
      "Ġsubstances": 6863,
      "Ġepid": 6864,
      "olester": 6865,
      "Ġinstruments": 6866,
      "ĠPub": 6867,
      "Ġchrom": 6868,
      "anta": 6869,
      "ĠGrand": 6870,
      "Ġmarriage": 6871,
      "Ġbroken": 6872,
      "Ġadventure": 6873,
      "fts": 6874,
      "Ġorient": 6875,
      "Ġsheet": 6876,
      "Ġrepeated": 6877,
      "Ġaccessible": 6878,
      "Ġvulnerable": 6879,
      "ĠSign": 6880,
      "ĠGard": 6881,
      "Ġemployment": 6882,
      "ĠChampions": 6883,
      "ointed": 6884,
      "iotics": 6885,
      "fish": 6886,
      "Ġexists": 6887,
      "osh": 6888,
      "ĠColor": 6889,
      "Ġclothing": 6890,
      "Ġstreet": 6891,
      "Ġrealized": 6892,
      "Ġscript": 6893,
      "Ġtheore": 6894,
      "ĠRoad": 6895,
      "Ġdeaths": 6896,
      "DP": 6897,
      "ĠCast": 6898,
      "Ġblocks": 6899,
      "Ġinterf": 6900,
      "tra": 6901,
      "Ġbio": 6902,
      "ĠProfessor": 6903,
      "Ġreven": 6904,
      "ourse": 6905,
      "ĠNASA": 6906,
      "Ġdust": 6907,
      "Ġminerals": 6908,
      "ĠExp": 6909,
      "unicip": 6910,
      "Ġengaged": 6911,
      "Ġformula": 6912,
      "Ġmanif": 6913,
      "Ġsustainability": 6914,
      "Ġsuffer": 6915,
      "Ġgrew": 6916,
      "Ġ1970": 6917,
      "Ġsocieties": 6918,
      "such": 6919,
      "hav": 6920,
      "Ġexpressed": 6921,
      "Ġmitig": 6922,
      "!\"": 6923,
      "ĠTown": 6924,
      "Ġcompare": 6925,
      "Ġguarant": 6926,
      "Ġobjective": 6927,
      "Ġsymbols": 6928,
      "Ġfashion": 6929,
      "lean": 6930,
      "Ġimpossible": 6931,
      "Ġpreparation": 6932,
      "Ġvote": 6933,
      "III": 6934,
      "Rec": 6935,
      "Ġspending": 6936,
      "Ġ1997": 6937,
      "ĠMartin": 6938,
      "LE": 6939,
      "ribe": 6940,
      "Ġmolecules": 6941,
      "operation": 6942,
      "ĠImp": 6943,
      "indu": 6944,
      "ĠTake": 6945,
      "Ġthanks": 6946,
      "Ġintegration": 6947,
      "section": 6948,
      "ĠPet": 6949,
      "ĠEffect": 6950,
      "Ġencourages": 6951,
      "Ġconstitution": 6952,
      "Ġforget": 6953,
      "Ġcapabilities": 6954,
      "ĠEnc": 6955,
      "inals": 6956,
      "Ġprison": 6957,
      "ĠOF": 6958,
      "Ġmarg": 6959,
      "Ã¢": 6960,
      "ĠNorthern": 6961,
      "Stud": 6962,
      "Ġvac": 6963,
      "Ġuniverse": 6964,
      "Ġtele": 6965,
      "Ġrespectively": 6966,
      "03": 6967,
      "Ġhus": 6968,
      "Ġaer": 6969,
      "ĠUt": 6970,
      "Ġsurfaces": 6971,
      "Ġproviders": 6972,
      "Ġlimits": 6973,
      "olesterol": 6974,
      "Ġturning": 6975,
      "84": 6976,
      "ĠAP": 6977,
      "bles": 6978,
      "Ġeffectiveness": 6979,
      "Ġbreathing": 6980,
      "Ġwisdom": 6981,
      "Ġpreval": 6982,
      "Ġfellow": 6983,
      "Ġstrict": 6984,
      "zen": 6985,
      "Ġdesire": 6986,
      "Ġresolution": 6987,
      "Ġaccepted": 6988,
      "Ġfold": 6989,
      "ette": 6990,
      "ĠStadium": 6991,
      "Ġenthus": 6992,
      "Ġcuriosity": 6993,
      "Ġcomplexity": 6994,
      "Ġcategory": 6995,
      "Ġabund": 6996,
      "Ġexplo": 6997,
      "ĠCup": 6998,
      "Ġagreed": 6999,
      "BN": 7000,
      "ptions": 7001,
      "Ġarms": 7002,
      "ĠColl": 7003,
      "Ġtwice": 7004,
      "Ġgreatly": 7005,
      "Bl": 7006,
      "asy": 7007,
      "Ġfewer": 7008,
      "Ġinject": 7009,
      "ĠExt": 7010,
      "Ġtrials": 7011,
      "ĠIII": 7012,
      "Ġdealing": 7013,
      "aped": 7014,
      "Ġathlet": 7015,
      "Ġdaughter": 7016,
      "Ġ75": 7017,
      "Ġdebate": 7018,
      "ora": 7019,
      "luding": 7020,
      "Ġnewsp": 7021,
      "Ġveter": 7022,
      "ĠAny": 7023,
      "athe": 7024,
      "Ġstring": 7025,
      "Ġstomach": 7026,
      "Ġunus": 7027,
      "Ġsucceed": 7028,
      "Ġconsideration": 7029,
      "fortunately": 7030,
      "rovers": 7031,
      "Ġcomplicated": 7032,
      "agues": 7033,
      "ĠKingdom": 7034,
      "Ġbear": 7035,
      "ograp": 7036,
      "Ġaccum": 7037,
      "Ġfunds": 7038,
      "Ġends": 7039,
      "Ġmood": 7040,
      "?âĢĿ": 7041,
      "Ġbiod": 7042,
      "oves": 7043,
      "Ġenabling": 7044,
      "oir": 7045,
      "Ġcos": 7046,
      "Ġdecline": 7047,
      "Ġoperate": 7048,
      "ĠCurrent": 7049,
      "Ġrom": 7050,
      "Ġopposite": 7051,
      "world": 7052,
      "Ġvessels": 7053,
      "Ġhousing": 7054,
      "Ġdiscrimination": 7055,
      "ĠDen": 7056,
      "Ġobservations": 7057,
      "Ġconcerning": 7058,
      "Ġdomain": 7059,
      "ĠSuper": 7060,
      "Ġconven": 7061,
      "Ġ1996": 7062,
      "inity": 7063,
      "Ġyounger": 7064,
      "Ġpair": 7065,
      "Ġinitiatives": 7066,
      "71": 7067,
      "uis": 7068,
      "Ġentertain": 7069,
      "Ġdrawn": 7070,
      "Ġswim": 7071,
      "ĠNature": 7072,
      "==": 7073,
      "oston": 7074,
      "ishop": 7075,
      "IP": 7076,
      "arks": 7077,
      "Ġcomparison": 7078,
      "mond": 7079,
      "Ġpoem": 7080,
      "Ġske": 7081,
      "Ġpsychology": 7082,
      "Ġfurn": 7083,
      "Ġworse": 7084,
      "ĠExamples": 7085,
      "Ġreceiving": 7086,
      "Ġmechanical": 7087,
      "ĠFil": 7088,
      "Ġdemands": 7089,
      "espread": 7090,
      "Ġpip": 7091,
      "ĠBill": 7092,
      "ih": 7093,
      "ĠChicago": 7094,
      "Ġmyth": 7095,
      "Ġmild": 7096,
      "Ġlaboratory": 7097,
      "Ġsubsequent": 7098,
      "ĠKar": 7099,
      "Ġreplaced": 7100,
      "heim": 7101,
      "Ġconflicts": 7102,
      "Ġcouldn": 7103,
      "rep": 7104,
      "Ġzero": 7105,
      "oints": 7106,
      "Finally": 7107,
      "Ġhumanity": 7108,
      "ĠAcademy": 7109,
      "Ġtrained": 7110,
      "ervative": 7111,
      "Introduction": 7112,
      "Ġeducators": 7113,
      "gans": 7114,
      "ĠBob": 7115,
      "Ġexpansion": 7116,
      "Ġconfir": 7117,
      "Ġteen": 7118,
      "Ġpossibly": 7119,
      "Ġpreventing": 7120,
      "Ġparameters": 7121,
      "bu": 7122,
      "zed": 7123,
      "Ġprofound": 7124,
      "74": 7125,
      "Ġphotograph": 7126,
      "aph": 7127,
      "####": 7128,
      "ĠCy": 7129,
      "Ġsight": 7130,
      "icit": 7131,
      "Ġsections": 7132,
      "Ġcards": 7133,
      "Ġlatter": 7134,
      "Ġadequate": 7135,
      "IR": 7136,
      "âĢĻ.": 7137,
      "aren": 7138,
      "Ġacids": 7139,
      "Ġpossibility": 7140,
      "Ġtank": 7141,
      "ĠFind": 7142,
      "ĠJohnson": 7143,
      "Bob": 7144,
      "ĠFollow": 7145,
      "Ġcalcium": 7146,
      "idity": 7147,
      "ographical": 7148,
      "uses": 7149,
      "Ġadvert": 7150,
      "ĠAge": 7151,
      "Ġparticipation": 7152,
      "Ġstatistics": 7153,
      "Ġunexpected": 7154,
      "Ġintroduce": 7155,
      "Ġviruses": 7156,
      "Ġnob": 7157,
      "Ġsurve": 7158,
      "using": 7159,
      "urrent": 7160,
      "Ġdetection": 7161,
      "ĠAnalysis": 7162,
      "Ġdepos": 7163,
      "Ġracial": 7164,
      "Ġvotes": 7165,
      "umps": 7166,
      "Ġcenters": 7167,
      "Ġfocusing": 7168,
      "Ġfeeding": 7169,
      "Ġinhib": 7170,
      "Ġflour": 7171,
      "ĠAsian": 7172,
      "Chapter": 7173,
      "Ġmode": 7174,
      "Ġmarketing": 7175,
      "wo": 7176,
      "Ġtut": 7177,
      "rooms": 7178,
      "stein": 7179,
      "raine": 7180,
      "Ġintricate": 7181,
      "Ġsought": 7182,
      "Ġdioxide": 7183,
      "Ġrecommendations": 7184,
      "riendly": 7185,
      "urb": 7186,
      "Ġmagnetic": 7187,
      "Ġcrus": 7188,
      "Ġremarkable": 7189,
      "Ġlegs": 7190,
      "ĠIrish": 7191,
      "Ġtrip": 7192,
      "Ġalgorithms": 7193,
      "erb": 7194,
      "Ġasp": 7195,
      "ket": 7196,
      "Ġinsects": 7197,
      "vin": 7198,
      "Ġmic": 7199,
      "Ġidentifying": 7200,
      "oted": 7201,
      "Ġexpertise": 7202,
      "Act": 7203,
      "istical": 7204,
      "ĠThose": 7205,
      "BS": 7206,
      "Ġpup": 7207,
      "ĠYoung": 7208,
      "ĠZeal": 7209,
      "ĠAdminist": 7210,
      "Ġ1960": 7211,
      "Ġmold": 7212,
      "My": 7213,
      "Ġabstract": 7214,
      "rot": 7215,
      "unning": 7216,
      "cons": 7217,
      "etics": 7218,
      "Ġjump": 7219,
      "Ġregardless": 7220,
      "ĠOcean": 7221,
      "Ġproduces": 7222,
      "Ġintegrated": 7223,
      "opl": 7224,
      "Ġfacilitate": 7225,
      "Ġwish": 7226,
      "orders": 7227,
      "Ġindeed": 7228,
      "oven": 7229,
      "Ġconversations": 7230,
      "Ġpoetry": 7231,
      "Ġassociation": 7232,
      "Ġprotecting": 7233,
      "Ġzone": 7234,
      "Ġannounced": 7235,
      "Ġinequ": 7236,
      "ĠMa": 7237,
      "Ġrobust": 7238,
      "LA": 7239,
      "Ġcul": 7240,
      "ommod": 7241,
      "Ġfossil": 7242,
      "Ġtack": 7243,
      "elled": 7244,
      "Ġequival": 7245,
      "83": 7246,
      "Ġflav": 7247,
      "Ġpresents": 7248,
      "Ġruns": 7249,
      "Ġattached": 7250,
      "Ġended": 7251,
      "Other": 7252,
      "Ġlibr": 7253,
      "scale": 7254,
      "Ġfulf": 7255,
      "Ġroof": 7256,
      "def": 7257,
      "Ġepis": 7258,
      "ĠBank": 7259,
      "Ġdance": 7260,
      "sen": 7261,
      "ĠPlant": 7262,
      "ĠHy": 7263,
      "02": 7264,
      "ĠIN": 7265,
      "illa": 7266,
      "American": 7267,
      "95": 7268,
      "Ġprominent": 7269,
      "heast": 7270,
      "Ġcash": 7271,
      "Ġitem": 7272,
      "ĠYet": 7273,
      "Ġholding": 7274,
      "Ġwidespread": 7275,
      "ĠDoes": 7276,
      "ady": 7277,
      "ading": 7278,
      "Ġcolour": 7279,
      "Ġinterventions": 7280,
      "Ġ1995": 7281,
      "OC": 7282,
      "onomic": 7283,
      "Ġwaiting": 7284,
      "________": 7285,
      "anches": 7286,
      "ĠBrown": 7287,
      "Ġapplying": 7288,
      "Ġresulted": 7289,
      "ĠBusiness": 7290,
      "Ġwarming": 7291,
      "ĠClimate": 7292,
      "ĠĠĠĠĠĠĠĠĠĠĠĠĠĠĠĠĠĠĠĠĠĠĠĠĠĠĠĠĠĠ": 7293,
      "ĠComput": 7294,
      "ĠRom": 7295,
      "ĠNations": 7296,
      "Ġobjectives": 7297,
      "EP": 7298,
      "Since": 7299,
      "ĠValley": 7300,
      "Ġpool": 7301,
      "Ġsched": 7302,
      "Ġphysics": 7303,
      "Ġ42": 7304,
      "sequently": 7305,
      "72": 7306,
      "Ġrecept": 7307,
      "ĠAccess": 7308,
      "Ġalike": 7309,
      "Ġmm": 7310,
      "bridge": 7311,
      "Ġsunlight": 7312,
      "irt": 7313,
      "Ġpassage": 7314,
      "ĠOnly": 7315,
      "Ġstrengthen": 7316,
      "Ġexcessive": 7317,
      "See": 7318,
      "Ġoccasion": 7319,
      "Ġpercentage": 7320,
      "Ġfailed": 7321,
      "Ġsmoking": 7322,
      "ĠZealand": 7323,
      "Ġcryst": 7324,
      "Ġcontributing": 7325,
      "Ġmathematical": 7326,
      "Le": 7327,
      "ishment": 7328,
      "Ġcorrel": 7329,
      "Ġmathematics": 7330,
      "Ġinherent": 7331,
      "ĠDutch": 7332,
      "Ġcomprom": 7333,
      "ĠUr": 7334,
      "ĠIns": 7335,
      "Ġfinished": 7336,
      "Ġcriteria": 7337,
      "ĠBack": 7338,
      "Ġamid": 7339,
      "Ġgradually": 7340,
      "Ġcovers": 7341,
      "Ġjoy": 7342,
      "ĠCarolina": 7343,
      "Ġdelay": 7344,
      "Ġseemed": 7345,
      "Ġnotable": 7346,
      "Over": 7347,
      "een": 7348,
      "peror": 7349,
      "Ġlinear": 7350,
      "inction": 7351,
      "Ġnine": 7352,
      "ĠDou": 7353,
      "Ġsubstantial": 7354,
      "Ġcontributions": 7355,
      "Ġhem": 7356,
      "empl": 7357,
      "alls": 7358,
      "Ġcamera": 7359,
      "rays": 7360,
      "Ġpossibilities": 7361,
      "ĠGuide": 7362,
      "Ġangle": 7363,
      "Ġbiggest": 7364,
      "Ġinterpretation": 7365,
      "ĠStart": 7366,
      "Ġcolumn": 7367,
      "Ġperforming": 7368,
      "eut": 7369,
      "Ġcup": 7370,
      "04": 7371,
      "Ġprincip": 7372,
      "Ġbeings": 7373,
      "ĠFamily": 7374,
      ".;": 7375,
      "Ġ48": 7376,
      "ĠLearn": 7377,
      "Ġreject": 7378,
      "lymp": 7379,
      "âĢĺ": 7380,
      "Ġdialogue": 7381,
      "Ġnerve": 7382,
      "Ġdisrupt": 7383,
      "Ġbarriers": 7384,
      "Ġnom": 7385,
      "Ġpartner": 7386,
      "Ġquarter": 7387,
      "Ġparallel": 7388,
      "rat": 7389,
      "Ġmaps": 7390,
      "itely": 7391,
      "Ġpersonality": 7392,
      "ĠCommittee": 7393,
      "ĠMach": 7394,
      "fit": 7395,
      "ĠOl": 7396,
      "Ġheavily": 7397,
      "Ġmissing": 7398,
      "ĠHill": 7399,
      "Ġbridge": 7400,
      "Ġemotion": 7401,
      "Ġterritory": 7402,
      "73": 7403,
      "Ġunless": 7404,
      "compass": 7405,
      "Ġlens": 7406,
      "olving": 7407,
      "Ġcommitted": 7408,
      "isk": 7409,
      "ilation": 7410,
      "ĠTHE": 7411,
      "Ġmand": 7412,
      "Ġran": 7413,
      "gers": 7414,
      "ĠOper": 7415,
      "IM": 7416,
      "ested": 7417,
      "Ġwebsites": 7418,
      "car": 7419,
      "cher": 7420,
      "reens": 7421,
      "ĠDown": 7422,
      "IL": 7423,
      "rox": 7424,
      "ĠDev": 7425,
      "ployment": 7426,
      "Ġclients": 7427,
      "ĠâĨ": 7428,
      "Ġvocabulary": 7429,
      "ca": 7430,
      "Ġfest": 7431,
      "Ġunable": 7432,
      "Ġlaunch": 7433,
      "irty": 7434,
      "ĠLead": 7435,
      "Ġnoticed": 7436,
      "Ġprove": 7437,
      "Ġalb": 7438,
      "ĠTop": 7439,
      "Ġoutl": 7440,
      "Ġoblig": 7441,
      "Ġdifficulties": 7442,
      "Ġshed": 7443,
      "Ġtroops": 7444,
      "08": 7445,
      "ĠEU": 7446,
      "ĠCommunity": 7447,
      "Ġconstantly": 7448,
      "avirus": 7449,
      "Ġspecialized": 7450,
      "ĠGeorg": 7451,
      "Ġlaunched": 7452,
      "Ġcriminal": 7453,
      "omer": 7454,
      "Ġsculpt": 7455,
      "Ġartistic": 7456,
      "Ġminimize": 7457,
      "Ġroute": 7458,
      "Ġecosystems": 7459,
      "65": 7460,
      "Ġpharm": 7461,
      "Ġowner": 7462,
      "emia": 7463,
      "Ġfeels": 7464,
      "Ġbiology": 7465,
      "Ġinfluences": 7466,
      "Ġerrors": 7467,
      "Qu": 7468,
      "dem": 7469,
      "Ġinstalled": 7470,
      "Ġmoisture": 7471,
      "ĠGal": 7472,
      "ressing": 7473,
      "itals": 7474,
      "aked": 7475,
      "Ġcorn": 7476,
      "but": 7477,
      "Ġdecor": 7478,
      "oga": 7479,
      "ĠChange": 7480,
      "Ġsilver": 7481,
      "Ġgut": 7482,
      "Ġrice": 7483,
      "Ġvideos": 7484,
      "ĠLight": 7485,
      "ĠLibrary": 7486,
      "Ġrequiring": 7487,
      "ML": 7488,
      "lishing": 7489,
      "Don": 7490,
      "Ġmineral": 7491,
      "Ġworksh": 7492,
      "itical": 7493,
      "Ġmovie": 7494,
      "Ġdebt": 7495,
      "Ġrespiratory": 7496,
      "Ġsession": 7497,
      "utrition": 7498,
      "Ã¤": 7499,
      "ĠNatural": 7500,
      "Ġdepart": 7501,
      "Ġrising": 7502,
      "Ġstrategic": 7503,
      "ĠPo": 7504,
      "Ġcorrectly": 7505,
      "Ġneighborhood": 7506,
      "Ġstructural": 7507,
      "Ġinvestigation": 7508,
      "69": 7509,
      "Ġdys": 7510,
      "Ġpush": 7511,
      "Ġunw": 7512,
      "whel": 7513,
      "mod": 7514,
      "onia": 7515,
      "Ġsolving": 7516,
      "ustain": 7517,
      "Ġearn": 7518,
      "Ġbranch": 7519,
      "ĠKh": 7520,
      "Ġcolonial": 7521,
      "Ġforming": 7522,
      "azine": 7523,
      "Figure": 7524,
      ".'": 7525,
      "Ġcorner": 7526,
      "Ġfourth": 7527,
      "Ġfarming": 7528,
      "ĠMichigan": 7529,
      "Ġresident": 7530,
      "Ġcombat": 7531,
      "Ġfu": 7532,
      "RC": 7533,
      "Ġneck": 7534,
      "Ġcomposed": 7535,
      "ĠReal": 7536,
      "Ġanalys": 7537,
      "Ġexperiencing": 7538,
      "Ġmamm": 7539,
      "Ġmir": 7540,
      "etime": 7541,
      "everal": 7542,
      "Ġshot": 7543,
      "Ġframe": 7544,
      "Ġtreating": 7545,
      "Ġrobot": 7546,
      "ĠServices": 7547,
      "earing": 7548,
      "phone": 7549,
      "Ġmarks": 7550,
      "Ġcontrols": 7551,
      "Ġliteracy": 7552,
      "ĠAgricult": 7553,
      "Ġworksheets": 7554,
      "ĠLim": 7555,
      "Ġpreserve": 7556,
      "Ġrepair": 7557,
      "ĠScotland": 7558,
      "Ġrocks": 7559,
      "ĠOlymp": 7560,
      "Ġmyster": 7561,
      "Ġnecessarily": 7562,
      "Ġwilling": 7563,
      "Ġperception": 7564,
      "lights": 7565,
      "Ġeastern": 7566,
      "Ġboy": 7567,
      "Ġputting": 7568,
      "ctic": 7569,
      "Ġrefuge": 7570,
      "disc": 7571,
      "'m": 7572,
      "pes": 7573,
      "Ġsentences": 7574,
      "outs": 7575,
      "Ġrelation": 7576,
      "Ġparagraph": 7577,
      "Ġinteractive": 7578,
      "TH": 7579,
      "ĠProcess": 7580,
      "Ġmeasurement": 7581,
      "Ġevolved": 7582,
      "Ġpermanent": 7583,
      "urric": 7584,
      "ĠSwed": 7585,
      "Ġphenomenon": 7586,
      "ĠJac": 7587,
      "Ġassets": 7588,
      "Ġmeters": 7589,
      "Ġpreferences": 7590,
      "bar": 7591,
      "Your": 7592,
      "eli": 7593,
      "uality": 7594,
      "Ġ55": 7595,
      "Ġrenewable": 7596,
      "ĠUlt": 7597,
      "nal": 7598,
      "Ġencounter": 7599,
      "ĠBoard": 7600,
      "Ġspok": 7601,
      "rics": 7602,
      "inson": 7603,
      "Ġpractition": 7604,
      "Ġsimultaneously": 7605,
      "ĠPot": 7606,
      "Pe": 7607,
      "Ġdrain": 7608,
      "Ġblind": 7609,
      "Ġdecade": 7610,
      "ĠWord": 7611,
      "ribed": 7612,
      "Ġtissues": 7613,
      "charge": 7614,
      "Ġcholesterol": 7615,
      "Ġintense": 7616,
      "Ġdepartment": 7617,
      "Ġmusical": 7618,
      "rates": 7619,
      "Ġoutcome": 7620,
      "Ġcarb": 7621,
      "Ġreturns": 7622,
      "Ġsubs": 7623,
      "Ġfrequent": 7624,
      "Ġimplementing": 7625,
      "unc": 7626,
      "Ġelectro": 7627,
      "Ġregulation": 7628,
      "Ġ65": 7629,
      "Ġcomputing": 7630,
      "gs": 7631,
      "isters": 7632,
      "ĠBoston": 7633,
      "Ġedition": 7634,
      "Ġcontrovers": 7635,
      "rowing": 7636,
      "rated": 7637,
      "Ġengineers": 7638,
      "orses": 7639,
      "teen": 7640,
      "oples": 7641,
      "Ġobesity": 7642,
      "Ġdiscussing": 7643,
      "ĠPte": 7644,
      "forcement": 7645,
      "neys": 7646,
      "Ġsigned": 7647,
      "ĠSystems": 7648,
      "ĠFred": 7649,
      "erior": 7650,
      "orph": 7651,
      "ĠIslam": 7652,
      "Ġcontamin": 7653,
      "Ġwellbeing": 7654,
      "Ġphoto": 7655,
      "ĠDar": 7656,
      "Ġreaching": 7657,
      "Ġgap": 7658,
      "Ġconfig": 7659,
      "ĠBig": 7660,
      "Ġdevelopments": 7661,
      "class": 7662,
      "Ġhypothes": 7663,
      "ĠSpecial": 7664,
      "App": 7665,
      "ĠEr": 7666,
      "Ġdanger": 7667,
      "Ġgirl": 7668,
      "Ġsizes": 7669,
      "Ġanalyzing": 7670,
      "Ġships": 7671,
      "Ġdistributed": 7672,
      "Ġsatisf": 7673,
      "Ġsessions": 7674,
      "Ġrelief": 7675,
      "Ġproductivity": 7676,
      "Ġhydrogen": 7677,
      "Ġnan": 7678,
      "ĠLee": 7679,
      "Ġovercome": 7680,
      "Ġhandling": 7681,
      "Ġminds": 7682,
      "Ġbringing": 7683,
      "comm": 7684,
      "eers": 7685,
      "Ġborder": 7686,
      "Ġstrain": 7687,
      "oving": 7688,
      "Ġcopper": 7689,
      "Ġhappening": 7690,
      "ĠEp": 7691,
      "iop": 7692,
      "orks": 7693,
      "Ġring": 7694,
      "Ġplenty": 7695,
      "earchers": 7696,
      "Ġ44": 7697,
      "ĠWhether": 7698,
      "ÑĤ": 7699,
      "andon": 7700,
      "Ġagents": 7701,
      "nov": 7702,
      "Ġclient": 7703,
      "Ġfever": 7704,
      "Ġrealm": 7705,
      "Ġcleaning": 7706,
      "Ġfro": 7707,
      "Ġincorporate": 7708,
      "Rem": 7709,
      "Ġlegisl": 7710,
      "ĠSarah": 7711,
      "Su": 7712,
      "],": 7713,
      "Ġrivers": 7714,
      "Ġtransc": 7715,
      "Ġcats": 7716,
      "Ġenhancing": 7717,
      "Ġmeasurements": 7718,
      "Ġmixture": 7719,
      "Ġtrouble": 7720,
      "Lear": 7721,
      "Ġcav": 7722,
      "ĠBab": 7723,
      "Ġcurious": 7724,
      "82": 7725,
      "amins": 7726,
      "Ġsubt": 7727,
      "Ġhole": 7728,
      "acles": 7729,
      "Ġvoltage": 7730,
      "Ġaccommod": 7731,
      "ĠMinister": 7732,
      "Ġhonor": 7733,
      "ĠLabour": 7734,
      "ĠIndigenous": 7735,
      "Ġvariations": 7736,
      "Ġefficiently": 7737,
      "Ġnarrative": 7738,
      "alities": 7739,
      "81": 7740,
      "itter": 7741,
      "eren": 7742,
      "Ġpra": 7743,
      "acher": 7744,
      "theless": 7745,
      "Ġproceed": 7746,
      "ĠWal": 7747,
      "ĠLin": 7748,
      "Ġkg": 7749,
      "Ġnewly": 7750,
      "rant": 7751,
      "ĠMult": 7752,
      "Ġintent": 7753,
      "Ġgluc": 7754,
      "Ġimmigr": 7755,
      "Ġdestroyed": 7756,
      "hma": 7757,
      "ĠRock": 7758,
      "Ġentered": 7759,
      "ĠDisease": 7760,
      "ulus": 7761,
      "Ġcoron": 7762,
      "Ġargue": 7763,
      "Ġbonds": 7764,
      "ĠVer": 7765,
      "Ġwhenever": 7766,
      "tes": 7767,
      "Key": 7768,
      "Ġgal": 7769,
      "ĠKn": 7770,
      "Ġlights": 7771,
      "Ġbrows": 7772,
      "Ġobserve": 7773,
      "Ġmoments": 7774,
      "ieval": 7775,
      "Ġbalanced": 7776,
      "Ġcalculate": 7777,
      "Ġtrauma": 7778,
      "icide": 7779,
      "ĠResp": 7780,
      "Ġinstances": 7781,
      "Ġimplemented": 7782,
      "sex": 7783,
      "ĠEc": 7784,
      "Ġtelevision": 7785,
      "Ġpassing": 7786,
      "ĠBattle": 7787,
      "nected": 7788,
      "cture": 7789,
      "She": 7790,
      "bour": 7791,
      "ega": 7792,
      "Ġalgorithm": 7793,
      "Ġforth": 7794,
      "iana": 7795,
      "Ġbabies": 7796,
      "Of": 7797,
      "Ġstre": 7798,
      "Ġorgans": 7799,
      "ĠCheck": 7800,
      "Ġfalse": 7801,
      "Ġnone": 7802,
      "ĠĠĠĠĠĠĠĠĠĠĠĠĠĠĠĠĠĠĠĠĠĠĠĠĠĠĠĠĠĠĠ": 7803,
      "Ġissued": 7804,
      "ĠPrinc": 7805,
      "otton": 7806,
      "Ġreward": 7807,
      "Ġshaped": 7808,
      "Ġfriendly": 7809,
      "ĠAngel": 7810,
      "ĠWindows": 7811,
      "Despite": 7812,
      "OL": 7813,
      "abeth": 7814,
      "64": 7815,
      "va": 7816,
      "Ġgone": 7817,
      "osion": 7818,
      "iture": 7819,
      "ĠTimes": 7820,
      "Ġdoubt": 7821,
      "Ġheating": 7822,
      "ĠWhere": 7823,
      "Alice": 7824,
      "Ġoutbre": 7825,
      "ĠBul": 7826,
      "ĠRam": 7827,
      "Ġpracticing": 7828,
      "ĠCancer": 7829,
      "Ġnervous": 7830,
      "ĠCross": 7831,
      "Ġoverwhel": 7832,
      "Or": 7833,
      "Ġquantum": 7834,
      "struct": 7835,
      "ĠProp": 7836,
      "akespe": 7837,
      "iotic": 7838,
      "sell": 7839,
      "Ġtraits": 7840,
      "Ġinher": 7841,
      "Ġactively": 7842,
      "IA": 7843,
      "Ġbanks": 7844,
      "ĠChall": 7845,
      "Ġreveal": 7846,
      "Ġvan": 7847,
      "olar": 7848,
      "iger": 7849,
      "Ġremoval": 7850,
      "%)": 7851,
      "07": 7852,
      "esis": 7853,
      "ĠLast": 7854,
      "position": 7855,
      "ĠMoon": 7856,
      "opping": 7857,
      "door": 7858,
      "ĠWelcome": 7859,
      "working": 7860,
      "Ġrhyth": 7861,
      "ĠMethod": 7862,
      "Ġmyst": 7863,
      "Ġcontributed": 7864,
      "Ġcorresponding": 7865,
      "Ġadm": 7866,
      "Ġdamaged": 7867,
      "Ġlegislation": 7868,
      "how": 7869,
      "ctu": 7870,
      "ĠNov": 7871,
      "Ġcompound": 7872,
      "just": 7873,
      "Ġencouraging": 7874,
      "Ġacknowled": 7875,
      "iating": 7876,
      "Ġwhatever": 7877,
      "ĠChristmas": 7878,
      "Ġencompass": 7879,
      "ĠBal": 7880,
      "ĠHand": 7881,
      "Ġrealize": 7882,
      "Ġgrid": 7883,
      "âĢĻ,": 7884,
      "print": 7885,
      "Ġkne": 7886,
      "Ġbranches": 7887,
      "ĠChristianity": 7888,
      "Ð½": 7889,
      "TC": 7890,
      "ĠContin": 7891,
      "Ġtargets": 7892,
      "Ġcaptiv": 7893,
      "Ġempower": 7894,
      "ĠDom": 7895,
      "akespeare": 7896,
      "Ġru": 7897,
      "ĠISBN": 7898,
      "Not": 7899,
      "ĠStar": 7900,
      "Ġtwenty": 7901,
      "Ġclassical": 7902,
      "Ġchest": 7903,
      "Ġapproved": 7904,
      "iary": 7905,
      "Ġ1994": 7906,
      "Ġtransformation": 7907,
      "reek": 7908,
      "Ġrepresenting": 7909,
      "ĠOhio": 7910,
      "Ġwatching": 7911,
      "ĠNever": 7912,
      "Ġinspiration": 7913,
      "Ġcomplications": 7914,
      "Ġreson": 7915,
      "Ġassigned": 7916,
      "Ġcompassion": 7917,
      "Ġdescript": 7918,
      "Ġgreenhouse": 7919,
      "Ġinhabit": 7920,
      "iological": 7921,
      "Ġmice": 7922,
      "ĠHappy": 7923,
      "Ġranging": 7924,
      "eenth": 7925,
      "Ġ400": 7926,
      "Ġinvention": 7927,
      "acco": 7928,
      "ĠOnline": 7929,
      "prene": 7930,
      "Ġnorms": 7931,
      "Ġsharp": 7932,
      "Ġcontained": 7933,
      "Ġacute": 7934,
      ".|": 7935,
      "Ġbigger": 7936,
      "Ġcarrying": 7937,
      "Ġplus": 7938,
      "Ġflag": 7939,
      "Ġpuzz": 7940,
      "ÑĢ": 7941,
      "rac": 7942,
      "rency": 7943,
      "Ġremed": 7944,
      "ĠHistorical": 7945,
      "Ġbath": 7946,
      "Ġarise": 7947,
      "Ġguard": 7948,
      "ĠSecurity": 7949,
      "Ġhun": 7950,
      "ĠCard": 7951,
      "ĠBuilding": 7952,
      "tles": 7953,
      "Ġsatellite": 7954,
      "reprene": 7955,
      "Ġvisitors": 7956,
      "Ġdisaster": 7957,
      "Ġqualities": 7958,
      "ovascular": 7959,
      "ĠOrig": 7960,
      "Ġforg": 7961,
      "TP": 7962,
      "Ġtub": 7963,
      "eness": 7964,
      "quality": 7965,
      "berry": 7966,
      "Ġdifferently": 7967,
      "Ġdefense": 7968,
      "ordinary": 7969,
      "Ġ46": 7970,
      "Ġexplored": 7971,
      "Ġmoves": 7972,
      "Ġunusual": 7973,
      "Ġcounsel": 7974,
      "avery": 7975,
      "ĠStrateg": 7976,
      "Ġarguments": 7977,
      "Ġcolleagues": 7978,
      "antly": 7979,
      "Ġequality": 7980,
      "requ": 7981,
      "Ġcomments": 7982,
      "rine": 7983,
      "Ġfacility": 7984,
      "ĠInvest": 7985,
      "Ġclassic": 7986,
      "telling": 7987,
      "Ġfishing": 7988,
      "SS": 7989,
      "airy": 7990,
      "Ġlimitations": 7991,
      "ruption": 7992,
      "Ġfaces": 7993,
      "Ġcab": 7994,
      "Ġbutton": 7995,
      "Ġseat": 7996,
      "Ġnucle": 7997,
      "Ġdatas": 7998,
      "iox": 7999,
      "Ġhistoric": 8000,
      "Ġtension": 8001,
      "ĠSaint": 8002,
      "Ġstores": 8003,
      "ĠView": 8004,
      "Ġchoosing": 8005,
      "ĠApplic": 8006,
      "Ñģ": 8007,
      "atial": 8008,
      "ĠCrit": 8009,
      "ostic": 8010,
      "iah": 8011,
      "mers": 8012,
      "ĠTogether": 8013,
      "ĠFact": 8014,
      "Ġsacr": 8015,
      "Ġhusband": 8016,
      "Last": 8017,
      "ĠLar": 8018,
      "ometric": 8019,
      "Ġattempts": 8020,
      "yer": 8021,
      "Ġalter": 8022,
      "Ġavailability": 8023,
      "Ġconnecting": 8024,
      "ĠNetwork": 8025,
      "sm": 8026,
      "Ġpeak": 8027,
      "Ġpublication": 8028,
      "Ġparas": 8029,
      "ĠReading": 8030,
      "yan": 8031,
      "Ġcontributes": 8032,
      "opes": 8033,
      "Ġille": 8034,
      "Ġpanel": 8035,
      "rous": 8036,
      "Ġequally": 8037,
      "Ġspectrum": 8038,
      "Ġequivalent": 8039,
      "Ġfer": 8040,
      "apse": 8041,
      "Ġvarieties": 8042,
      "ĠAst": 8043,
      "Ġproof": 8044,
      "occ": 8045,
      "ĠVar": 8046,
      "ymph": 8047,
      "Ġcoastal": 8048,
      "Ġmemories": 8049,
      "Ġseconds": 8050,
      "ometry": 8051,
      "Ġnp": 8052,
      "ĠType": 8053,
      "Ġunion": 8054,
      "Col": 8055,
      "Ġachieving": 8056,
      "ĠRegular": 8057,
      "Ġrect": 8058,
      "eries": 8059,
      "Ġtact": 8060,
      "Ġmolecular": 8061,
      "ortion": 8062,
      "Ġobservation": 8063,
      "Ġuniversal": 8064,
      "Ġburning": 8065,
      "ml": 8066,
      "ĠSem": 8067,
      "Ġspin": 8068,
      "Ġabandon": 8069,
      "opher": 8070,
      "HD": 8071,
      "ĠHosp": 8072,
      "ĠFour": 8073,
      "anger": 8074,
      "Ġdefect": 8075,
      "Ġpanels": 8076,
      "\")": 8077,
      "Ġshut": 8078,
      "Ġidentification": 8079,
      "real": 8080,
      "Ġprovider": 8081,
      "Ġguess": 8082,
      "Ġ1993": 8083,
      "Ġorigins": 8084,
      "Ġkidney": 8085,
      "ĠFoot": 8086,
      "ulty": 8087,
      "Ġweakness": 8088,
      "Ġcircle": 8089,
      "96": 8090,
      "Ġwww": 8091,
      "ipher": 8092,
      "soft": 8093,
      "esh": 8094,
      "Ġpoison": 8095,
      "ĠWriting": 8096,
      "Ġflexibility": 8097,
      "enger": 8098,
      "Ġestimate": 8099,
      "Ġencouraged": 8100,
      "MP": 8101,
      "gien": 8102,
      "Ġupdated": 8103,
      "onym": 8104,
      "ĠMusic": 8105,
      "onents": 8106,
      "Ġmales": 8107,
      "ĠAtlantic": 8108,
      "Ġsmoke": 8109,
      "health": 8110,
      "Ġemphasis": 8111,
      "Ġcompetitive": 8112,
      "Ġcaptured": 8113,
      "Ġconstructed": 8114,
      "ĠPractice": 8115,
      "Ġpreserving": 8116,
      "ĠWil": 8117,
      "akistan": 8118,
      "ĠAR": 8119,
      "Ġuniform": 8120,
      "Ġcentre": 8121,
      "she": 8122,
      "amber": 8123,
      "Ġouter": 8124,
      "Ġrac": 8125,
      "ĠPortug": 8126,
      "Ġvibrant": 8127,
      "Ġcoverage": 8128,
      "aired": 8129,
      "eling": 8130,
      "Ġchances": 8131,
      "Med": 8132,
      "Ġmetals": 8133,
      "Ġimprovements": 8134,
      "Co": 8135,
      "ĠTry": 8136,
      "ĠCat": 8137,
      "ylvan": 8138,
      "Ġlingu": 8139,
      "Ġgro": 8140,
      "oids": 8141,
      "Ġ------------------------": 8142,
      "%.": 8143,
      "iations": 8144,
      "inates": 8145,
      "Ġsail": 8146,
      "etts": 8147,
      "Ġfalls": 8148,
      "oys": 8149,
      "ĠFire": 8150,
      "Ġeditor": 8151,
      "Ġsafely": 8152,
      "Ġundert": 8153,
      "Ġadds": 8154,
      "Ġexpressions": 8155,
      "Ġexhibit": 8156,
      "Ġpreferred": 8157,
      "Comm": 8158,
      "ĠCoast": 8159,
      "Ġintrig": 8160,
      "ritis": 8161,
      "hyd": 8162,
      "Ġadvancements": 8163,
      "ĠIslamic": 8164,
      "ĠForest": 8165,
      "Ġstere": 8166,
      "Ġindicated": 8167,
      "Ġestimates": 8168,
      "Ġsongs": 8169,
      "sub": 8170,
      "ĠName": 8171,
      "ila": 8172,
      "ĠAttend": 8173,
      "ĠPM": 8174,
      "Ġtargeted": 8175,
      "Ġpreparing": 8176,
      "Ġauthentic": 8177,
      "Go": 8178,
      "Ġneur": 8179,
      "Ġcelebrate": 8180,
      "Ġcrypt": 8181,
      "Ġvarying": 8182,
      "Ġembracing": 8183,
      "ĠAC": 8184,
      "Ġcooperation": 8185,
      "Ġinterpre": 8186,
      "otypes": 8187,
      "ĠCandid": 8188,
      "esides": 8189,
      "Ġshowc": 8190,
      "Ġdispl": 8191
    },
    "merges": [
      [
        "Ġ",
        "Ġ"
      ],
      [
        "Ġ",
        "t"
      ],
      [
        "Ġ",
        "a"
      ],
      [
        "i",
        "n"
      ],
      [
        "h",
        "e"
      ],
      [
        "r",
        "e"
      ],
      [
        "o",
        "n"
      ],
      [
        "ĠĠ",
        "ĠĠ"
      ],
      [
        "Ġt",
        "he"
      ],
      [
        "e",
        "r"
      ],
      [
        "a",
        "t"
      ],
      [
        "Ġ",
        "s"
      ],
      [
        "Ġ",
        "o"
      ],
      [
        "e",
        "n"
      ],
      [
        "Ġ",
        "c"
      ],
      [
        "e",
        "s"
      ],
      [
        "n",
        "d"
      ],
      [
        "Ġ",
        "w"
      ],
      [
        "i",
        "t"
      ],
      [
        "i",
        "s"
      ],
      [
        "o",
        "r"
      ],
      [
        "a",
        "l"
      ],
      [
        "in",
        "g"
      ],
      [
        "Ġ",
        "p"
      ],
      [
        "a",
        "n"
      ],
      [
        "Ġ",
        "f"
      ],
      [
        "e",
        "d"
      ],
      [
        "Ġ",
        "b"
      ],
      [
        "o",
        "u"
      ],
      [
        "Ġo",
        "f"
      ],
      [
        "a",
        "r"
      ],
      [
        "Ġ",
        "in"
      ],
      [
        "Ġa",
        "nd"
      ],
      [
        "i",
        "c"
      ],
      [
        "Ġ",
        "m"
      ],
      [
        "i",
        "on"
      ],
      [
        "Ġt",
        "o"
      ],
      [
        "ĠĠĠĠ",
        "ĠĠĠĠ"
      ],
      [
        "Ġ",
        "d"
      ],
      [
        "l",
        "e"
      ],
      [
        "r",
        "o"
      ],
      [
        "a",
        "s"
      ],
      [
        "en",
        "t"
      ],
      [
        "Ġ",
        "h"
      ],
      [
        "c",
        "t"
      ],
      [
        "Ġ",
        "e"
      ],
      [
        "Ġt",
        "h"
      ],
      [
        "i",
        "l"
      ],
      [
        "Ġ",
        "re"
      ],
      [
        "o",
        "m"
      ],
      [
        "s",
        "t"
      ],
      [
        "v",
        "e"
      ],
      [
        "Ġ",
        "l"
      ],
      [
        "-",
        "-"
      ],
      [
        "Ġ",
        "n"
      ],
      [
        "e",
        "t"
      ],
      [
        "l",
        "y"
      ],
      [
        "Ġ",
        "T"
      ],
      [
        "o",
        "l"
      ],
      [
        "at",
        "ion"
      ],
      [
        "Ġ",
        "|"
      ],
      [
        "s",
        "e"
      ],
      [
        "Ġ",
        "g"
      ],
      [
        "i",
        "m"
      ],
      [
        "Ġ",
        "is"
      ],
      [
        "â",
        "Ģ"
      ],
      [
        "i",
        "d"
      ],
      [
        "r",
        "a"
      ],
      [
        "c",
        "e"
      ],
      [
        "u",
        "r"
      ],
      [
        "Ġb",
        "e"
      ],
      [
        "c",
        "h"
      ],
      [
        "o",
        "w"
      ],
      [
        "Ġ",
        "A"
      ],
      [
        "u",
        "t"
      ],
      [
        "ĠĠĠĠĠĠĠĠ",
        "ĠĠĠĠĠĠĠĠ"
      ],
      [
        "Ġ",
        "S"
      ],
      [
        "i",
        "g"
      ],
      [
        "o",
        "t"
      ],
      [
        "Ġ",
        "u"
      ],
      [
        "Ġf",
        "or"
      ],
      [
        "Ġ",
        "C"
      ],
      [
        "Ġ",
        "y"
      ],
      [
        "Ġs",
        "t"
      ],
      [
        "v",
        "er"
      ],
      [
        "i",
        "r"
      ],
      [
        "Ġ",
        "on"
      ],
      [
        "u",
        "l"
      ],
      [
        "a",
        "m"
      ],
      [
        "Ġ",
        "I"
      ],
      [
        "e",
        "l"
      ],
      [
        "Ġth",
        "at"
      ],
      [
        "a",
        "y"
      ],
      [
        "it",
        "h"
      ],
      [
        "Ġc",
        "on"
      ],
      [
        "Ġy",
        "ou"
      ],
      [
        "Ġa",
        "s"
      ],
      [
        "Ġp",
        "ro"
      ],
      [
        "a",
        "d"
      ],
      [
        "Ġ",
        "1"
      ],
      [
        "he",
        "r"
      ],
      [
        "i",
        "f"
      ],
      [
        "Ġw",
        "ith"
      ],
      [
        "Ġ",
        "M"
      ],
      [
        "t",
        "er"
      ],
      [
        "Ġa",
        "n"
      ],
      [
        "Ġo",
        "r"
      ],
      [
        "Ġ",
        "("
      ],
      [
        "--",
        "--"
      ],
      [
        "Ġ",
        "P"
      ],
      [
        "Ġa",
        "re"
      ],
      [
        "o",
        "d"
      ],
      [
        "Ġw",
        "h"
      ],
      [
        "Ġa",
        "l"
      ],
      [
        "m",
        "ent"
      ],
      [
        "Ġ",
        "it"
      ],
      [
        "es",
        "s"
      ],
      [
        "er",
        "s"
      ],
      [
        "g",
        "e"
      ],
      [
        "at",
        "e"
      ],
      [
        "i",
        "es"
      ],
      [
        "t",
        "h"
      ],
      [
        "is",
        "t"
      ],
      [
        "Ġe",
        "x"
      ],
      [
        "Ġ",
        "B"
      ],
      [
        "ĠT",
        "he"
      ],
      [
        "a",
        "b"
      ],
      [
        "Ġc",
        "om"
      ],
      [
        "o",
        "p"
      ],
      [
        "e",
        "ct"
      ],
      [
        "Ġd",
        "e"
      ],
      [
        "u",
        "s"
      ],
      [
        "re",
        "s"
      ],
      [
        "it",
        "y"
      ],
      [
        "Ġ",
        "he"
      ],
      [
        "il",
        "l"
      ],
      [
        "i",
        "ve"
      ],
      [
        "Ġ",
        "v"
      ],
      [
        "Ġs",
        "u"
      ],
      [
        "a",
        "c"
      ],
      [
        "i",
        "v"
      ],
      [
        "Ġ",
        "H"
      ],
      [
        "q",
        "u"
      ],
      [
        "e",
        "m"
      ],
      [
        "Ġ",
        "W"
      ],
      [
        "o",
        "re"
      ],
      [
        "a",
        "nd"
      ],
      [
        "k",
        "e"
      ],
      [
        "u",
        "m"
      ],
      [
        "es",
        "t"
      ],
      [
        "Ġw",
        "e"
      ],
      [
        "Ġ",
        "R"
      ],
      [
        "o",
        "s"
      ],
      [
        "Ġ",
        "D"
      ],
      [
        "p",
        "p"
      ],
      [
        "a",
        "in"
      ],
      [
        "an",
        "t"
      ],
      [
        "Ġ",
        "2"
      ],
      [
        "Ġ",
        "E"
      ],
      [
        "n",
        "t"
      ],
      [
        "Ġ",
        "F"
      ],
      [
        "o",
        "c"
      ],
      [
        "ig",
        "h"
      ],
      [
        "ro",
        "m"
      ],
      [
        "l",
        "d"
      ],
      [
        "i",
        "al"
      ],
      [
        "Ġb",
        "y"
      ],
      [
        "Ġc",
        "h"
      ],
      [
        "Ġc",
        "an"
      ],
      [
        "or",
        "t"
      ],
      [
        "u",
        "d"
      ],
      [
        "u",
        "n"
      ],
      [
        "Ġa",
        "t"
      ],
      [
        "Ġ",
        "r"
      ],
      [
        "âĢ",
        "Ļ"
      ],
      [
        "u",
        "re"
      ],
      [
        "Ġ",
        "le"
      ],
      [
        "Ġn",
        "e"
      ],
      [
        "Ġ",
        "L"
      ],
      [
        "Ġs",
        "e"
      ],
      [
        "ic",
        "al"
      ],
      [
        "Ġ",
        "en"
      ],
      [
        "Ġh",
        "a"
      ],
      [
        "ĠĠĠĠĠĠĠĠĠĠĠĠĠĠĠĠ",
        "ĠĠĠĠĠĠĠĠĠĠĠĠĠĠĠĠ"
      ],
      [
        "Ġf",
        "rom"
      ],
      [
        "Ġ",
        "G"
      ],
      [
        "Ġ",
        "N"
      ],
      [
        "ar",
        "t"
      ],
      [
        "Ġw",
        "as"
      ],
      [
        "r",
        "i"
      ],
      [
        "ion",
        "s"
      ],
      [
        "o",
        "g"
      ],
      [
        "Ġ",
        "âĢ"
      ],
      [
        "r",
        "ou"
      ],
      [
        "Ġs",
        "h"
      ],
      [
        "Ġs",
        "p"
      ],
      [
        "a",
        "p"
      ],
      [
        "al",
        "l"
      ],
      [
        "igh",
        "t"
      ],
      [
        "a",
        "g"
      ],
      [
        "Ġw",
        "or"
      ],
      [
        "p",
        "l"
      ],
      [
        "in",
        "e"
      ],
      [
        "Ġa",
        "b"
      ],
      [
        "ou",
        "r"
      ],
      [
        "g",
        "h"
      ],
      [
        "e",
        "re"
      ],
      [
        "ou",
        "t"
      ],
      [
        "Ġ",
        "im"
      ],
      [
        "Ġth",
        "is"
      ],
      [
        "Ġyou",
        "r"
      ],
      [
        "Ġin",
        "t"
      ],
      [
        "Ġn",
        "ot"
      ],
      [
        "Ġha",
        "ve"
      ],
      [
        "u",
        "st"
      ],
      [
        "Ġp",
        "l"
      ],
      [
        "ar",
        "d"
      ],
      [
        "Ġu",
        "s"
      ],
      [
        "om",
        "e"
      ],
      [
        "Ġ",
        "O"
      ],
      [
        "p",
        "t"
      ],
      [
        "i",
        "z"
      ],
      [
        "Ġthe",
        "ir"
      ],
      [
        "a",
        "ct"
      ],
      [
        "o",
        "st"
      ],
      [
        "ic",
        "h"
      ],
      [
        "a",
        "re"
      ],
      [
        "at",
        "ed"
      ],
      [
        "t",
        "her"
      ],
      [
        "Ġ",
        "J"
      ],
      [
        "p",
        "er"
      ],
      [
        "0",
        "0"
      ],
      [
        "f",
        "f"
      ],
      [
        "el",
        "l"
      ],
      [
        "a",
        "ge"
      ],
      [
        "a",
        "k"
      ],
      [
        "ou",
        "s"
      ],
      [
        "----",
        "----"
      ],
      [
        "ation",
        "s"
      ],
      [
        "d",
        "u"
      ],
      [
        "Ġa",
        "d"
      ],
      [
        "an",
        "s"
      ],
      [
        "ou",
        "ld"
      ],
      [
        "Ġcom",
        "p"
      ],
      [
        "ul",
        "t"
      ],
      [
        "T",
        "he"
      ],
      [
        "id",
        "e"
      ],
      [
        "e",
        "c"
      ],
      [
        "as",
        "t"
      ],
      [
        "'",
        "s"
      ],
      [
        "Ġcon",
        "t"
      ],
      [
        "en",
        "d"
      ],
      [
        "i",
        "p"
      ],
      [
        "Ġw",
        "he"
      ],
      [
        "Ġ",
        "k"
      ],
      [
        "Ġ",
        "U"
      ],
      [
        "r",
        "u"
      ],
      [
        "Ġre",
        "s"
      ],
      [
        "i",
        "b"
      ],
      [
        "Ġthe",
        "y"
      ],
      [
        "Ġin",
        "c"
      ],
      [
        "ar",
        "y"
      ],
      [
        "c",
        "c"
      ],
      [
        "Ġd",
        "is"
      ],
      [
        "on",
        "g"
      ],
      [
        "an",
        "ce"
      ],
      [
        "ĠT",
        "h"
      ],
      [
        "e",
        "ar"
      ],
      [
        "or",
        "m"
      ],
      [
        "ĠI",
        "n"
      ],
      [
        "Ġal",
        "l"
      ],
      [
        "ve",
        "l"
      ],
      [
        "i",
        "a"
      ],
      [
        "i",
        "e"
      ],
      [
        "o",
        "od"
      ],
      [
        "ab",
        "le"
      ],
      [
        "Ġw",
        "ill"
      ],
      [
        "u",
        "al"
      ],
      [
        "Ġwh",
        "ich"
      ],
      [
        "e",
        "p"
      ],
      [
        "k",
        "s"
      ],
      [
        "Ġt",
        "e"
      ],
      [
        "en",
        "ce"
      ],
      [
        "Ġc",
        "l"
      ],
      [
        "i",
        "re"
      ],
      [
        "r",
        "y"
      ],
      [
        "in",
        "d"
      ],
      [
        "ig",
        "n"
      ],
      [
        "ent",
        "s"
      ],
      [
        "a",
        "ch"
      ],
      [
        "Ġim",
        "p"
      ],
      [
        "re",
        "at"
      ],
      [
        "Ġm",
        "ore"
      ],
      [
        "s",
        "o"
      ],
      [
        "Ġd",
        "o"
      ],
      [
        "Ġm",
        "an"
      ],
      [
        "b",
        "er"
      ],
      [
        "a",
        "v"
      ],
      [
        "Ġh",
        "as"
      ],
      [
        "Ġm",
        "e"
      ],
      [
        "ct",
        "ion"
      ],
      [
        "Ġ1",
        "9"
      ],
      [
        "Ġu",
        "n"
      ],
      [
        "Ġo",
        "ther"
      ],
      [
        "it",
        "ion"
      ],
      [
        "Ġ",
        "j"
      ],
      [
        "res",
        "s"
      ],
      [
        "at",
        "er"
      ],
      [
        "ĠĠ",
        "Ġ"
      ],
      [
        "Ġa",
        "pp"
      ],
      [
        "il",
        "d"
      ],
      [
        "as",
        "s"
      ],
      [
        "c",
        "es"
      ],
      [
        "Ġab",
        "out"
      ],
      [
        "o",
        "o"
      ],
      [
        "ic",
        "e"
      ],
      [
        "Ġp",
        "er"
      ],
      [
        "Ġa",
        "r"
      ],
      [
        "i",
        "ke"
      ],
      [
        "ĠS",
        "t"
      ],
      [
        "a",
        "ke"
      ],
      [
        "Ġal",
        "so"
      ],
      [
        "Ġ",
        "K"
      ],
      [
        "Ġb",
        "ut"
      ],
      [
        "on",
        "e"
      ],
      [
        "or",
        "s"
      ],
      [
        "Ġp",
        "re"
      ],
      [
        "im",
        "e"
      ],
      [
        "u",
        "e"
      ],
      [
        "Ġ",
        "3"
      ],
      [
        "Ġe",
        "v"
      ],
      [
        "or",
        "y"
      ],
      [
        "Ġon",
        "e"
      ],
      [
        "en",
        "s"
      ],
      [
        "nd",
        "er"
      ],
      [
        "ac",
        "k"
      ],
      [
        "ver",
        "y"
      ],
      [
        "a",
        "ce"
      ],
      [
        "Ġcom",
        "m"
      ],
      [
        "as",
        "e"
      ],
      [
        "Ġo",
        "ut"
      ],
      [
        "i",
        "le"
      ],
      [
        "Ġp",
        "art"
      ],
      [
        "is",
        "h"
      ],
      [
        "or",
        "d"
      ],
      [
        "âĢ",
        "Ŀ"
      ],
      [
        "r",
        "it"
      ],
      [
        "Ġs",
        "o"
      ],
      [
        "an",
        "g"
      ],
      [
        "f",
        "orm"
      ],
      [
        "a",
        "u"
      ],
      [
        "Ġthe",
        "m"
      ],
      [
        "Ġwe",
        "re"
      ],
      [
        "r",
        "ic"
      ],
      [
        "o",
        "se"
      ],
      [
        "ou",
        "nt"
      ],
      [
        "Ġs",
        "c"
      ],
      [
        "Ġs",
        "y"
      ],
      [
        "u",
        "b"
      ],
      [
        "ol",
        "og"
      ],
      [
        "ĠC",
        "h"
      ],
      [
        "Ġ2",
        "0"
      ],
      [
        "Ġst",
        "ud"
      ],
      [
        "am",
        "e"
      ],
      [
        "Ġint",
        "o"
      ],
      [
        "Ġp",
        "e"
      ],
      [
        "n",
        "ow"
      ],
      [
        "ou",
        "nd"
      ],
      [
        "Ġ",
        "qu"
      ],
      [
        "rou",
        "gh"
      ],
      [
        "Ġthe",
        "se"
      ],
      [
        "if",
        "f"
      ],
      [
        "ing",
        "s"
      ],
      [
        "ĠI",
        "t"
      ],
      [
        "Ġu",
        "p"
      ],
      [
        "l",
        "ow"
      ],
      [
        "Ġ",
        "\""
      ],
      [
        "Ġwh",
        "o"
      ],
      [
        "it",
        "ies"
      ],
      [
        "Ġf",
        "e"
      ],
      [
        "Ġt",
        "ra"
      ],
      [
        "re",
        "e"
      ],
      [
        "i",
        "an"
      ],
      [
        "Ġbe",
        "c"
      ],
      [
        "Ġin",
        "d"
      ],
      [
        "Ġl",
        "ike"
      ],
      [
        "Ġe",
        "m"
      ],
      [
        ")",
        "."
      ],
      [
        "if",
        "ic"
      ],
      [
        "Ġh",
        "ow"
      ],
      [
        "Ġ",
        "V"
      ],
      [
        "ĠĠĠĠĠĠĠĠĠĠĠĠĠĠĠĠĠĠĠĠĠĠĠĠĠĠĠĠĠĠĠĠ",
        "ĠĠĠĠĠĠĠĠĠĠĠĠĠĠĠĠĠĠĠĠĠĠĠĠĠĠĠĠĠĠĠĠ"
      ],
      [
        "Ġ",
        "ro"
      ],
      [
        "k",
        "ing"
      ],
      [
        "it",
        "e"
      ],
      [
        "Ġo",
        "ur"
      ],
      [
        "at",
        "es"
      ],
      [
        "Ġh",
        "is"
      ],
      [
        "at",
        "ing"
      ],
      [
        "ay",
        "s"
      ],
      [
        "a",
        "il"
      ],
      [
        "Ġit",
        "s"
      ],
      [
        "p",
        "h"
      ],
      [
        "ment",
        "s"
      ],
      [
        "ĠTh",
        "is"
      ],
      [
        "ĠâĢ",
        "ľ"
      ],
      [
        "Ġu",
        "nder"
      ],
      [
        "Ġwhe",
        "n"
      ],
      [
        "Ġs",
        "ome"
      ],
      [
        "Ġb",
        "et"
      ],
      [
        "Ġre",
        "c"
      ],
      [
        "on",
        "s"
      ],
      [
        "i",
        "ous"
      ],
      [
        "er",
        "v"
      ],
      [
        "op",
        "le"
      ],
      [
        "on",
        "d"
      ],
      [
        "Ġd",
        "iff"
      ],
      [
        "le",
        "ct"
      ],
      [
        "Ġcon",
        "s"
      ],
      [
        "Ġm",
        "ay"
      ],
      [
        "Ġc",
        "ol"
      ],
      [
        "l",
        "es"
      ],
      [
        "Ġt",
        "r"
      ],
      [
        "t",
        "s"
      ],
      [
        "n",
        "e"
      ],
      [
        "n",
        "ing"
      ],
      [
        "Ġ",
        "Y"
      ],
      [
        "Ġt",
        "ime"
      ],
      [
        "w",
        "e"
      ],
      [
        "Ġo",
        "ver"
      ],
      [
        "ĠâĢ",
        "ĵ"
      ],
      [
        "l",
        "l"
      ],
      [
        "ter",
        "n"
      ],
      [
        "al",
        "ly"
      ],
      [
        "Ġa",
        "g"
      ],
      [
        "ou",
        "gh"
      ],
      [
        "Ġg",
        "o"
      ],
      [
        "ver",
        "s"
      ],
      [
        "l",
        "ud"
      ],
      [
        "Ġthe",
        "re"
      ],
      [
        "o",
        "ve"
      ],
      [
        "l",
        "ic"
      ],
      [
        "al",
        "th"
      ],
      [
        "m",
        "s"
      ],
      [
        "y",
        "s"
      ],
      [
        "Ġth",
        "an"
      ],
      [
        "Ġd",
        "es"
      ],
      [
        "Ġhe",
        "l"
      ],
      [
        "Ġa",
        "ct"
      ],
      [
        "Ġa",
        "cc"
      ],
      [
        "t",
        "e"
      ],
      [
        "Ġk",
        "now"
      ],
      [
        "Ġpe",
        "ople"
      ],
      [
        "Ġsu",
        "ch"
      ],
      [
        "Ġre",
        "l"
      ],
      [
        "re",
        "n"
      ],
      [
        "Ġhel",
        "p"
      ],
      [
        "Ġ",
        "ra"
      ],
      [
        "ro",
        "w"
      ],
      [
        "ur",
        "ing"
      ],
      [
        "Ġu",
        "se"
      ],
      [
        "o",
        "b"
      ],
      [
        "c",
        "ess"
      ],
      [
        "o",
        "v"
      ],
      [
        "ir",
        "st"
      ],
      [
        "at",
        "ive"
      ],
      [
        "ic",
        "s"
      ],
      [
        "re",
        "d"
      ],
      [
        "Ġ",
        "4"
      ],
      [
        "Ġth",
        "rough"
      ],
      [
        "Ġy",
        "ear"
      ],
      [
        "Ġ",
        "-"
      ],
      [
        "st",
        "em"
      ],
      [
        "vel",
        "op"
      ],
      [
        "Ġe",
        "ff"
      ],
      [
        "p",
        "le"
      ],
      [
        "Ġbe",
        "en"
      ],
      [
        "Ġne",
        "ed"
      ],
      [
        "m",
        "er"
      ],
      [
        "j",
        "ect"
      ],
      [
        "f",
        "ul"
      ],
      [
        "ul",
        "ar"
      ],
      [
        "Ġinc",
        "lud"
      ],
      [
        "rou",
        "nd"
      ],
      [
        "Ġne",
[...]
